<unk>	0
<s>	0
</s>	0
▁=	-3.2769
▁i	-3.69574
▁"	-3.71748
,	-3.72304
;	-3.74712
▁n	-3.77406
▁(	-3.8334
[	-3.84706
i	-3.98709
▁a	-4.00189
▁to	-4.1069
▁if	-4.17457
▁<<	-4.2127
]	-4.31721
▁{	-4.34566
"	-4.38564
▁for	-4.52731
▁>>	-4.54671
▁	-4.58074
▁s	-4.58464
▁-	-4.60561
▁+	-4.61556
▁long	-4.61989
int	-4.63827
▁0	-4.64387
)	-4.65154
▁is	-4.69486
▁b	-4.69726
▁and	-4.73504
▁int	-4.75449
;"	-4.76205
▁1	-4.84263
▁else	-4.88193
▁x	-4.88909
(	-4.97575
▁m	-4.99983
▁j	-5.00772
n	-5.03928
▁0;	-5.04948
▁cin	-5.05691
▁of	-5.06619
▁print	-5.07722
▁c	-5.07862
▁k	-5.08004
▁read	-5.09678
▁<	-5.10633
▁ans	-5.12734
▁==	-5.13632
▁""	-5.15023
▁endl	-5.18001
++)	-5.19878
▁*	-5.26896
▁integer	-5.2762
▁set	-5.32638
j	-5.35699
a	-5.38025
1	-5.39761
▁with	-5.42689
▁cout	-5.45414
▁t	-5.48675
▁y	-5.51809
""	-5.54617
▁1;	-5.55566
.	-5.55909
▁/	-5.57035
▁2	-5.59658
▁}	-5.60665
2	-5.61123
▁exclusive	-5.63111
cout	-5.67591
s	-5.67936
▁sum	-5.68893
if	-5.75234
▁increment	-5.78512
▁<=	-5.81038
▁d	-5.82492
▁%	-5.84097
▁p	-5.84918
▁the	-5.87293
▁create	-5.89389
▁while	-5.9162
▁than	-5.93168
x	-5.93393
▁equal	-5.9655
▁l	-5.98175
▁return	-5.99452
▁v	-6.00967
▁r	-6.02934
▁by	-6.03953
print	-6.0523
];	-6.07206
▁>	-6.09722
_	-6.11383
▁'	-6.14106
▁0)	-6.14461
▁integers	-6.15282
▁1)	-6.16232
▁string	-6.17659
][	-6.19185
▁&	-6.2107
++;	-6.22913
▁0,	-6.23211
for	-6.2433
▁from	-6.25287
&	-6.25381
▁size	-6.25792
▁arr	-6.26216
long	-6.26391
▁+=	-6.27101
▁cnt	-6.27384
▁array	-6.30595
▁new	-6.33954
▁declare	-6.35956
▁be	-6.37365
▁newline	-6.38221
b	-6.38898
=	-6.41306
▁value	-6.45168
▁inclusive	-6.46958
▁min	-6.49982
▁!=	-6.50807
[0]	-6.51585
▁let	-6.52117
▁greater	-6.53499
▁max	-6.53986
k	-6.54175
▁1]	-6.55293
▁f	-6.55676
"""	-6.59515
t	-6.59828
'	-6.6009
▁>=	-6.60184
);	-6.61347
▁or	-6.61852
3	-6.6289
▁break	-6.63383
▁loop	-6.63853
▁true	-6.64693
▁less	-6.66765
O	-6.67399
e	-6.70958
▁num	-6.72156
▁count	-6.75184
▁res	-6.75246
1,	-6.75528
▁flag	-6.75763
f	-6.7993
create	-6.80114
d	-6.80536
size	-6.81132
c	-6.82181
NO	-6.83645
▁str	-6.83838
▁not	-6.83878
▁q	-6.86709
();	-6.87129
m	-6.87139
ing	-6.87966
▁temp	-6.88578
▁line	-6.8939
y	-6.91214
read	-6.92742
▁3	-6.93723
()	-6.94926
YES	-6.96321
])	-6.99054
▁then	-6.99212
▁10	-7.01893
▁input	-7.03546
<	-7.0362
▁2;	-7.03794
[1]	-7.06416
▁z	-7.06735
▁const	-7.0706
▁2)	-7.08088
▁length	-7.08853
▁decrement	-7.09024
▁false	-7.09888
>	-7.11309
▁function	-7.13164
declare	-7.14403
▁w	-7.14724
p	-7.14805
▁0"	-7.15274
\	-7.16746
l	-7.17446
▁N	-7.1867
▁1,	-7.21261
▁vector	-7.23139
▁++	-7.23259
▁char	-7.23822
=0	-7.25699
||	-7.25749
r	-7.2719
ans	-7.27536
▁""\	-7.28259
▁h	-7.29021
string	-7.29101
▁do	-7.29106
]"	-7.29645
▁mod	-7.30539
▁-1	-7.31148
▁increase	-7.35185
▁assign	-7.36214
▁change	-7.399
▁modulo	-7.39934
▁variable	-7.40022
▁len	-7.40888
▁in	-7.42446
o	-7.42536
▁4	-7.42703
▁dp	-7.43565
▁add	-7.43846
v	-7.44441
▁ch	-7.47781
▁5	-7.49564
▁A	-7.50733
▁bool	-7.52963
2,	-7.53353
▁following	-7.55738
let	-7.56237
▁'\	-7.57801
')	-7.58648
▁abs	-7.59173
▁as	-7.60004
--)	-7.60201
▁g	-7.60508
▁((	-7.60926
▁tmp	-7.61589
▁{"	-7.61684
))	-7.62824
▁u	-7.64083
▁result	-7.64515
▁e	-7.66633
length	-7.69545
▁character	-7.72489
▁elements	-7.73928
';	-7.75086
push	-7.76463
▁one	-7.76859
[2]	-7.77403
▁constant	-7.77755
▁gcd	-7.78753
▁7	-7.79498
▁arguments	-7.79945
sort	-7.8039
cin	-7.80521
sum	-7.8059
back	-7.80951
▁output	-7.81468
--;	-7.81747
arr	-7.82385
▁maxn	-7.82906
▁mx	-7.83119
▁1"	-7.8429
▁end	-7.85158
▁element	-7.85917
▁-=	-7.8633
],	-7.87929
▁st	-7.88824
2)	-7.88922
-	-7.90195
▁sort	-7.96182
▁mp	-7.96988
end	-7.97944
▁continue	-7.98943
▁ints	-8.0027
str	-8.00655
1[	-8.01216
▁S	-8.02022
▁call	-8.02262
begin	-8.04949
▁void	-8.04983
A	-8.05801
9	-8.06092
▁10;	-8.06188
0	-8.06952
▁an	-8.07029
)"	-8.08707
▁3;	-8.08895
2;	-8.10629
D	-8.11694
while	-8.12661
u	-8.13909
(),	-8.1524
▁equals	-8.17228
set	-8.17535
▁pos	-8.17957
▁total	-8.17965
▁double	-8.17969
())	-8.18384
▁argument	-8.19789
▁1][	-8.20745
▁'0'	-8.20748
R	-8.21528
▁longs	-8.21564
▁1])	-8.21642
▁start	-8.21762
▁values	-8.22348
char	-8.22668
cnt	-8.23497
▁mn	-8.2376
▁ar	-8.24561
=1	-8.24773
▁boolean	-8.25499
2[	-8.25706
▁M	-8.25762
"")	-8.26202
▁8	-8.26206
ed	-8.26292
▁variables	-8.26516
▁strings	-8.26643
▁?	-8.27032
1)	-8.28079
▁standar	-8.28343
▁(!	-8.28683
▁run	-8.28698
return	-8.29178
in	-8.29935
▁:	-8.30324
Read	-8.30387
▁B	-8.31829
▁mid	-8.32129
▁solve	-8.3401
▁first	-8.34134
▁vis	-8.34893
h	-8.36515
q	-8.36653
max	-8.373
▁MOD	-8.37376
].	-8.37399
▁T	-8.37423
▁6	-8.3743
5	-8.37803
num	-8.39344
▁INF	-8.39441
▁-1,	-8.39504
▁100	-8.40352
▁make	-8.40603
▁name	-8.41264
▁absolute	-8.41872
▁index	-8.4266
flag	-8.42722
[3]	-8.42858
z	-8.42879
min	-8.43188
▁it	-8.44256
1;	-8.45009
▁check	-8.45114
▁sizeof	-8.47162
▁ok	-8.47333
▁5;	-8.47604
▁cur	-8.49285
N	-8.49666
▁decrease	-8.49984
]);	-8.50111
▁now	-8.50278
▁last	-8.50588
▁o	-8.52224
▁minimum	-8.53429
▁that	-8.54689
"",	-8.54754
temp	-8.55436
second	-8.56026
+	-8.57456
▁even	-8.5765
S	-8.58221
"";	-8.58558
▁at	-8.58795
▁val	-8.59304
first	-8.59904
▁""|	-8.63079
2"	-8.63094
▁3)	-8.6371
▁NO	-8.63738
▁maximum	-8.64183
▁1);	-8.66633
-1]	-8.67046
▁counter	-8.67515
else	-8.68388
▁)	-8.6887
▁4;	-8.696
▁1000	-8.69961
▁2,	-8.70363
▁ss	-8.70372
res	-8.70561
▁|	-8.70748
w	-8.70908
▁arrays	-8.71024
g	-8.71501
',	-8.72247
▁C	-8.72249
▁maxx	-8.72392
▁YES	-8.72492
memset	-8.72776
▁swap	-8.72909
▁append	-8.73345
▁R	-8.73544
▁ret	-8.74182
B	-8.74234
abs	-8.74439
pos	-8.74711
T	-8.74741
L	-8.748
MAX	-8.75216
▁are	-8.75422
map	-8.76228
][0]	-8.76314
▁map	-8.76957
count	-8.77227
▁L	-8.78264
▁1))	-8.78588
LL	-8.79364
▁1];	-8.80427
ch	-8.81033
▁stop	-8.81917
▁inf	-8.81999
▁-1;	-8.82253
▁prime	-8.8336
▁user	-8.83744
insert	-8.84609
']	-8.86366
▁second	-8.86407
<<	-8.88676
▁7;	-8.89142
▁all	-8.89207
▁INT	-8.89824
▁vec	-8.90866
3,	-8.91183
integers	-8.91392
▁otherwise	-8.91973
▁MAX	-8.92569
▁getchar	-8.93307
▁105	-8.93433
▁push	-8.9465
4	-8.9466
▁characters	-8.95572
[4]	-8.9584
▁define	-8.96542
▁tot	-8.96567
]++;	-8.96652
]]	-8.97707
▁insert	-8.98056
+1]	-8.99097
(""	-8.99173
▁cost	-8.99185
▁right	-9.00431
*	-9.00755
dp	-9.00791
integer	-9.00807
▁tak	-9.01634
++	-9.0204
maxn	-9.02182
array	-9.02202
▁left	-9.02414
find	-9.02732
▁minn	-9.03382
▁'1'	-9.03454
-1	-9.03675
▁on	-9.04094
▁dfs	-9.04354
▁divide	-9.05125
▁2]	-9.06344
▁""0""	-9.07159
][1]	-9.07615
U	-9.08404
▁cont	-9.0857
▁row	-9.08856
▁,	-9.08935
▁times	-9.10382
▁odd	-9.10579
▁time	-9.10961
▁8;	-9.13221
▁26	-9.13357
());	-9.13374
▁answer	-9.1365
),	-9.15276
▁!	-9.15331
▁iteration	-9.15799
▁MAXN	-9.16269
▁number	-9.16397
▁aux	-9.1785
▁each	-9.18053
1.	-9.18604
M	-9.18945
▁""-1""	-9.19102
puts	-9.20322
▁pre	-9.20838
▁strlen	-9.20858
▁10)	-9.20962
vector	-9.21139
gcd	-9.21348
[0];	-9.21456
));	-9.21791
▁""+	-9.22198
▁'0')	-9.22366
[5]	-9.23764
st	-9.2424
▁xx	-9.24704
▁maxi	-9.24807
C	-9.25336
+1	-9.25799
len	-9.26223
▁4)	-9.26922
substr	-9.27121
▁ara	-9.27977
▁9	-9.28068
pair	-9.2837
▁pointer	-9.29385
▁5)	-9.29526
▁%=	-9.30652
▁curr	-9.3078
tmp	-9.31767
▁'0';	-9.31772
▁subtract	-9.32227
▁remove	-9.32286
▁101	-9.32414
bool	-9.33593
[0])	-9.33744
▁X	-9.34983
start	-9.35514
--	-9.36282
▁next	-9.36346
▁diff	-9.36437
0,	-9.36878
▁prev	-9.36914
▁dist	-9.37413
▁P	-9.37784
▁-1)	-9.38257
mx	-9.38282
▁D	-9.38326
▁takes	-9.38465
▁'*'	-9.39188
[1])	-9.39304
▁mini	-9.39373
▁bitwise	-9.3945
Yes	-9.39957
No	-9.4011
▁exit	-9.40123
/	-9.40286
▁1000000007	-9.40593
▁mark	-9.40613
▁col	-9.40675
▁60	-9.4082
▁truthy	-9.41407
▁no	-9.41429
▁out	-9.41671
getline	-9.4219
▁between	-9.42435
▁two	-9.42547
6	-9.42686
1++;	-9.43082
▁ct	-9.43157
1[0]	-9.4317
▁initialize	-9.43531
▁inline	-9.44158
▁space	-9.4451
▁ma	-9.44977
it	-9.45265
['	-9.45516
▁different	-9.45547
▁unsigned	-9.46797
mp	-9.46911
th	-9.47328
((	-9.47437
▁20	-9.47491
▁""#""	-9.4788
X	-9.48059
cur	-9.48418
▁top	-9.48579
▁dy	-9.49027
▁current	-9.49337
▁7)	-9.49402
▁sqrt	-9.50254
▁{0};	-9.50783
▁step	-9.50963
to	-9.51243
▁reading	-9.51248
▁casted	-9.51325
▁base	-9.51337
P	-9.51529
increment	-9.51766
▁'-'	-9.51879
▁Max	-9.52184
▁12	-9.52239
I	-9.5262
▁'-')	-9.52774
double	-9.53442
▁(2	-9.53705
▁30	-9.54098
▁'1')	-9.54304
▁data	-9.54563
▁test	-9.55004
vis	-9.55288
▁down	-9.5574
▁word	-9.56863
▁G	-9.57611
index	-9.57618
▁beginning	-9.58284
▁get	-9.59343
▁both	-9.59508
▁""1""	-9.59588
▁6;	-9.598
1[1]	-9.59857
loop	-9.59861
[105];	-9.60355
F	-9.60705
▁15	-9.61076
▁day	-9.62363
▁acos	-9.62716
▁co	-9.62784
}	-9.62864
▁bytes	-9.62885
▁position	-9.63209
G	-9.63529
IG	-9.63674
[0],	-9.6373
▁1005	-9.63739
▁dx	-9.64718
[0][0]	-9.65295
▁power	-9.6596
▁ceil	-9.65993
3)	-9.66362
(0);	-9.66648
▁rem	-9.66951
now	-9.67551
▁pow	-9.68108
▁idx	-9.68226
[0][	-9.69624
▁100;	-9.69839
▁{0}	-9.70092
▁__	-9.70254
▁'.'	-9.70448
void	-9.70604
at	-9.70885
▁cmp	-9.70945
▁dis	-9.71327
▁2);	-9.71971
++]	-9.72386
▁empty	-9.72591
▁PI	-9.72832
function	-9.72889
erase	-9.7305
is	-9.73353
▁zero	-9.73644
▁100000	-9.74509
▁mm	-9.74544
(0,	-9.74552
▁110	-9.74777
rock	-9.74802
scissors	-9.75006
64	-9.75132
3;	-9.75621
W	-9.7566
paper	-9.76034
▁find	-9.76227
call	-9.77312
▁pq	-9.774
1"	-9.77547
-|	-9.7764
▁plus	-9.7783
▁100005	-9.78723
▁my	-9.78936
get	-9.79441
▁up	-9.7947
▁1000000007;	-9.79539
▁"",	-9.79766
▁substring	-9.79849
|	-9.79859
▁can	-9.81256
2++;	-9.81407
▁price	-9.8156
or	-9.8187
▁Y	-9.82622
▁pair	-9.82862
▁fa	-9.83141
[6]	-9.83422
▁10,	-9.83503
true	-9.83514
▁_	-9.83775
"")"	-9.83784
▁lcm	-9.83796
▁score	-9.83909
▁""-	-9.84459
check	-9.84792
2.	-9.85564
▁go	-9.85815
OOOO	-9.86266
mid	-9.8666
▁cek	-9.86836
▁ind	-9.87029
/2	-9.87161
nt	-9.87225
prime	-9.87536
7	-9.87955
▁25	-9.88038
▁sz	-9.88251
▁'#'	-9.89103
SEGMENT	-9.8932
▁'+'	-9.89658
pop	-9.89658
Second	-9.89752
top	-9.90169
!	-9.90349
▁'9')	-9.9045
Friendship	-9.90794
▁1000;	-9.91011
here	-9.91179
▁fast	-9.91189
▁'+')	-9.91295
▁""*""	-9.91671
▁1001	-9.92053
▁{}	-9.9215
▁'9'	-9.92372
re	-9.92444
▁'*')	-9.92489
▁50	-9.92544
decrement	-9.92632
▁yy	-9.92842
3"	-9.92931
make	-9.93288
mn	-9.93302
▁kol	-9.93695
▁freq	-9.93876
▁np	-9.94084
const	-9.94205
▁""*"";	-9.94227
First	-9.94387
▁bb	-9.94477
[0][1]	-9.94485
▁found	-9.94785
->	-9.95487
ar	-9.96267
1]	-9.96807
▁{0,	-9.96934
clear	-9.97308
|)""	-9.97673
▁200	-9.97726
]))	-9.97748
▁op	-9.9801
▁digit	-9.98228
TRIANGLE	-9.98401
▁multiply	-9.98555
▁fb	-9.98724
▁high	-9.98904
!""	-9.99006
▁ex	-9.99046
▁5,	-9.99203
2[0]	-9.99348
▁hi	-9.99641
▁init	-10.0065
▁lo	-10.0101
▁mat	-10.0145
▁win	-10.0146
▁root	-10.0186
empty	-10.0226
OO	-10.0287
ok	-10.0302
reverse	-10.0359
▁nl	-10.0458
▁11	-10.0523
iterator	-10.0556
OOO	-10.0586
▁8)	-10.0604
val	-10.064
▁mi	-10.07
▁'4'	-10.0701
MAXN	-10.0749
▁reverse	-10.0797
"");	-10.0807
▁"".""	-10.0826
▁multiple	-10.0858
▁coun	-10.092
left	-10.0938
▁{1,	-10.0953
idx	-10.1006
▁""-1	-10.1011
0;	-10.1017
▁(((	-10.1032
▁letter	-10.1068
define	-10.107
[3];	-10.1087
maxx	-10.1096
▁bit	-10.1174
▁primes	-10.1255
2]	-10.1282
▁lower	-10.131
LEFT	-10.1331
PRINT	-10.1346
▁EPS	-10.1396
▁accept	-10.1397
▁#	-10.1418
illed	-10.1427
▁inp	-10.1506
▁rest	-10.151
time	-10.1537
▁item	-10.1542
▁2))	-10.1546
[1],	-10.1563
[100];	-10.1567
▁cc	-10.1629
>::	-10.1675
▁further	-10.168
▁square	-10.1696
▁-1}	-10.1698
▁10000	-10.1769
▁55	-10.1836
▁endline	-10.1855
▁cal	-10.1859
[1][	-10.1863
▁need	-10.1867
(2,	-10.1876
▁sol	-10.1887
▁order	-10.1911
[2])	-10.1933
▁26;	-10.1952
▁tb	-10.1953
▁low	-10.1988
Y	-10.1991
▁6)	-10.1992
▁iterat	-10.2021
IMPOSSIBLE	-10.2025
▁(1)	-10.2043
input	-10.2052
▁judge	-10.2113
name	-10.2121
[1];	-10.2123
al	-10.2147
▁dif	-10.2157
▁pr	-10.2159
▁sy	-10.2178
▁vv	-10.2266
▁""#	-10.2267
▁bitshift	-10.2271
[1][0]	-10.2284
▁best	-10.2289
9;	-10.2339
▁color	-10.2343
▁adj	-10.2343
▁48	-10.2365
▁tt	-10.2391
▁div	-10.2443
▁dem	-10.2465
element	-10.2476
▁isprime	-10.2515
change	-10.2518
(0)	-10.2559
▁4,	-10.2641
""]	-10.2645
[1005];	-10.265
▁W	-10.2659
▁""/""	-10.266
ss	-10.2679
▁Min	-10.2765
[8]	-10.2796
▁back	-10.2822
▁book	-10.287
▁eps	-10.2926
▁'8'	-10.2993
▁re	-10.3012
DOWN	-10.304
UP	-10.3049
8	-10.305
Time	-10.3066
▁1],	-10.3089
▁(1	-10.3126
[105],	-10.3166
[100005];	-10.3186
[101];	-10.3197
][2]	-10.3205
▁isPrime	-10.3216
[1][1]	-10.3311
▁minx	-10.3325
1);	-10.3341
▁tp	-10.339
▁upper	-10.3428
▁valid	-10.3453
row	-10.35
[2];	-10.3527
-----------	-10.3542
▁'#';	-10.3554
▁resp	-10.3579
[10];	-10.3594
▁grid	-10.3628
▁'.')	-10.3636
out	-10.3662
2);	-10.3662
]]++;	-10.3686
▁'('	-10.3688
swap	-10.369
and	-10.3691
▁which	-10.3745
▁dimension	-10.3752
▁myset	-10.3779
▁store	-10.3811
▁1}	-10.3812
▁chars	-10.3812
MIN	-10.3836
ll	-10.3844
add	-10.3849
[4];	-10.3912
▁us	-10.3916
▁WINS	-10.3922
▁queue	-10.3951
▁se	-10.3967
▁""#"";	-10.3983
▁Arr	-10.3992
2[1]	-10.4026
▁table	-10.4066
[1000];	-10.4068
▁joy	-10.4097
▁100001	-10.4128
18	-10.4129
▁1000000	-10.4204
▁shift	-10.4218
▁iterator	-10.424
▁skip	-10.4284
▁gap	-10.429
31,	-10.4311
▁hh	-10.4315
▁con	-10.4327
▁ada	-10.4341
cmp	-10.4362
▁remainder	-10.4381
▁points	-10.4384
▁looping	-10.443
[110];	-10.4452
diff	-10.4462
▁br	-10.4487
mod	-10.4491
[7]	-10.4494
▁show	-10.4504
result	-10.4513
front	-10.4531
▁chest	-10.4542
▁display	-10.4548
▁fabs	-10.455
[2][1]	-10.456
unsigned	-10.457
▁ca	-10.4573
▁ck	-10.4576
▁9;	-10.459
last	-10.4605
▁--	-10.4605
------------	-10.4611
▁minus	-10.4613
▁visited	-10.4625
▁360	-10.463
▁Number	-10.4637
▁used	-10.4657
▁rows	-10.4669
▁"""";	-10.4721
▁type	-10.4735
▁suma	-10.482
ret	-10.4836
Correct	-10.4903
▁0}	-10.4925
▁fixed	-10.4951
▁magic	-10.4959
▁id	-10.4992
▁fill	-10.5015
txt	-10.5021
assign	-10.5057
[1][2]	-10.5076
▁nums	-10.5121
▁sb	-10.5127
Akshat	-10.5127
▁clear	-10.5134
number	-10.5136
ER	-10.5158
▁stack	-10.5181
▁sign	-10.5194
▁stdout	-10.5262
▁OR	-10.5279
▁I	-10.5287
▁250)	-10.5302
no	-10.5324
▁level	-10.5325
RU	-10.5383
red	-10.5392
▁fuel	-10.5394
▁stream	-10.5394
▁move	-10.5425
▁fin	-10.5427
▁father	-10.5443
4,	-10.5445
▁items	-10.546
total	-10.5467
▁visit	-10.5482
▁blue	-10.5483
▁'*';	-10.5488
▁whe	-10.5505
ter	-10.5519
▁days	-10.5522
Malvika	-10.5551
▁'?'	-10.5586
cost	-10.5595
::	-10.5597
▁good	-10.5638
▁pass	-10.5641
▁1010	-10.5649
▁20;	-10.5677
▁asc	-10.5702
▁fl	-10.5709
▁biceps	-10.5734
▁statement	-10.5743
▁fact	-10.5749
]--;	-10.5752
▁sub	-10.5773
▁12;	-10.5785
sqrt	-10.5845
▁'(')	-10.5856
▁dir	-10.5893
[0][2]	-10.5904
▁exp	-10.5928
▁mult	-10.5958
-1)	-10.5993
▁point	-10.601
▁kk	-10.6025
of	-10.6052
▁100)	-10.6055
-------------	-10.6073
▁'#')	-10.6079
LU	-10.6093
▁key	-10.6093
TEAM	-10.6103
▁97	-10.612
LD	-10.6127
RD	-10.6135
▁'\0'	-10.6135
rat	-10.6137
▁su	-10.6144
▁fathercnt	-10.6165
dfs	-10.6178
op	-10.6188
▁match	-10.6195
▁gets	-10.6224
▁through	-10.623
▁file	-10.6264
▁'.';	-10.6295
asya	-10.6303
▁mas	-10.6316
exclusive	-10.6317
▁brr	-10.6339
ind	-10.6339
|)	-10.6343
▁1000000000	-10.6353
▁erase	-10.6363
▁""."";	-10.6411
▁9)	-10.6425
[2][0]	-10.6426
man	-10.6451
▁hate	-10.6467
]=	-10.6479
▁tem	-10.6486
mark	-10.6488
▁arg	-10.6502
ending	-10.6505
▁unique	-10.6505
▁moves	-10.651
▁ty	-10.6552
blue	-10.6557
▁3"	-10.6569
▁hash	-10.6609
▁red	-10.6623
▁until	-10.67
▁tc	-10.6716
▁hitung	-10.6717
▁setting	-10.6729
▁three	-10.6729
▁'8')	-10.6735
(-1.0)	-10.676
vec	-10.6771
▁ele	-10.6774
RE	-10.6779
on	-10.6809
▁after	-10.6811
▁ctr	-10.6814
▁mul	-10.6842
output	-10.6863
right	-10.6884
▁distance	-10.6886
▁""0	-10.6904
[100],	-10.6916
▁nothing	-10.6932
▁keyboard	-10.6932
▁lol	-10.6979
▁1][0]	-10.6986
[3])	-10.7012
IM	-10.7044
▁1][1]	-10.7049
display	-10.7057
AT	-10.7064
▁begin	-10.7068
▁has	-10.7088
pow	-10.7092
-9	-10.7097
▁ta	-10.7125
0)	-10.714
▁TESTS	-10.7153
▁address	-10.7177
Power	-10.7188
▁precision	-10.7188
Mahmoud	-10.7196
woman	-10.7198
keep	-10.7199
Ehab	-10.7201
lled	-10.7201
child	-10.7208
▁fun	-10.7209
▁200005	-10.7211
▁var	-10.7217
▁'1';	-10.7217
▁No	-10.7227
run	-10.7265
▁WI	-10.7266
xx	-10.7272
▁puts	-10.7315
chest	-10.7317
Reality	-10.734
Mind	-10.7343
Space	-10.7343
Soul	-10.7346
(1	-10.7372
fa	-10.7372
▁calc	-10.7385
head	-10.7385
ith	-10.7393
E	-10.7398
▁Yes	-10.742
▁reference	-10.7433
▁comp	-10.7438
-------------+""	-10.7499
▁'\0';	-10.7539
oward	-10.7547
▁content	-10.7557
▁ff	-10.7565
[2][2]	-10.7573
▁""?""	-10.7583
▁list	-10.7637
▁MIN	-10.7651
▁inv	-10.7655
come	-10.7689
=2	-10.7695
▁dep	-10.7707
▁sieve	-10.7715
▁float	-10.7745
▁compare	-10.7761
▁998244353	-10.7767
▁edges	-10.7779
1--;	-10.7781
▁board	-10.7794
▁vectors	-10.7794
[2],	-10.78
▁guy	-10.7817
▁100010	-10.782
▁'['	-10.7866
[100005]	-10.7868
▁pi	-10.7871
aren	-10.7878
[5];	-10.7878
▁half	-10.7913
▁""""	-10.7918
▁med	-10.792
--------------	-10.7926
▁tolower	-10.7947
▁numbers	-10.7961
▁priority	-10.7976
green	-10.7979
2))	-10.7998
▁(!(	-10.7999
ara	-10.8008
▁cou	-10.801
▁31	-10.8011
et	-10.8064
▁F	-10.8089
▁counting	-10.8116
▁'4')	-10.812
▁'7'	-10.8132
biceps	-10.8132
▁':'	-10.8141
▁green	-10.8177
[10]	-10.8185
▁year	-10.82
▁en	-10.8204
[3],	-10.8219
▁""#.""	-10.8236
{	-10.8245
▁round	-10.8246
▁pref	-10.8253
[""	-10.8271
[2	-10.8274
▁'7')	-10.8306
▁(180	-10.8331
');	-10.8349
[101],	-10.836
▁putchar	-10.8363
▁ac	-10.8384
▁prog	-10.8421
(3	-10.8426
▁qr	-10.8475
""}	-10.8509
[1000],	-10.8509
10	-10.8517
color	-10.8522
------------+""	-10.8526
▁Friendship	-10.8528
▁1.0	-10.8567
▁lim	-10.8581
up	-10.8585
']++;	-10.8598
▁64	-10.861
White	-10.8618
Black	-10.8618
▁infinite	-10.8647
▁columns	-10.866
queue	-10.8714
[110]	-10.8721
Mishka	-10.8725
Chris	-10.8726
▁1000000009	-10.8741
minn	-10.8758
▁32	-10.8796
-1,	-10.8834
▁starty	-10.8843
0"	-10.8843
show	-10.8865
▁spf	-10.8883
erminate	-10.8895
Color	-10.8928
[26]	-10.8931
▁goal	-10.8949
▁ql	-10.8964
▁2005	-10.8967
▁matches	-10.897
▁15)	-10.897
▁'<'	-10.9015
Anton	-10.9032
Danik	-10.9033
Penny	-10.9036
▁calling	-10.9051
value	-10.9054
▁booleans	-10.9076
ma	-10.9087
▁month	-10.9098
▁curlower	-10.9099
▁Input	-10.91
▁does	-10.9102
us	-10.9104
[9]	-10.9147
win	-10.9156
orange	-10.9163
▁':')	-10.9179
Sheldon	-10.9189
Leonard	-10.9189
Rajesh	-10.919
[1001]	-10.9213
▁rlmoves	-10.9255
▁love	-10.9255
[1005]	-10.9289
aux	-10.9304
<=	-10.932
en	-10.9331
▁180	-10.9334
▁winner	-10.9343
▁60;	-10.9357
maxi	-10.9358
(-1);	-10.9361
curr	-10.9364
[++	-10.9377
▁game	-10.9399
[1001];	-10.9426
▁sumb	-10.9428
▁le	-10.9435
▁Set	-10.9448
▁psum	-10.9499
Incorrect	-10.9505
pre	-10.9513
▁case	-10.9551
▁GCD	-10.9553
cw	-10.9592
resize	-10.9593
▁""2""	-10.9594
:	-10.9599
▁MX	-10.9615
▁exist	-10.9631
▁flg	-10.9633
▁side	-10.9634
▁extra	-10.9637
id	-10.964
▁1]);	-10.9645
-1][	-10.9668
yellow	-10.9671
Misha	-10.9672
▁0))	-10.9683
▁mymap	-10.97
▁500	-10.9723
▁cn	-10.9836
purple	-10.9838
▁Count	-10.9845
Tie	-10.985
▁U	-10.986
mini	-10.9865
▁cap	-10.9874
-----------+""	-10.9893
.""	-10.9901
▁big	-10.9902
▁doubles	-10.9906
▁sx	-10.9921
▁cot	-10.9948
position	-10.9966
▁tm	-10.9971
▁yes	-10.9988
an	-11.0073
prev	-11.0074
▁rat	-11.0114
1][	-11.0125
▁Ans	-11.0177
▁write	-11.0177
▁maxm	-11.019
---------------	-11.0219
▁contain	-11.0231
.#.#.#.#.#.	-11.0234
▁front	-11.0243
('	-11.0262
[100000]	-11.027
2[1])	-11.0323
ccw	-11.037
▁iter	-11.0402
nd	-11.0415
▁log	-11.0422
30,	-11.0448
tot	-11.045
▁goto	-11.0451
precision	-11.0451
▁2])	-11.0465
▁txt	-11.0482
false	-11.0499
▁mov	-11.0528
captain	-11.0528
Dodecahedron	-11.055
Tetrahedron	-11.055
Octahedron	-11.0551
▁cond	-11.0557
Cube	-11.0561
NG	-11.0566
▁shu	-11.0569
▁alpha	-11.0627
▁1]))	-11.0636
▁cy	-11.0654
new	-11.0657
▁lessons	-11.0666
step	-11.0684
▁pp	-11.0692
▁tam	-11.0698
▁gr	-11.0699
▁rec	-11.0728
▁same	-11.0745
▁nCr	-11.0755
▁cycle	-11.076
la	-11.0774
_1	-11.0815
▁way	-11.0822
▁2*	-11.0843
▁(360	-11.0871
[0]);	-11.0872
)(	-11.0872
▁120	-11.0883
▁weak	-11.0895
▁(0);	-11.09
▁'0');	-11.0932
▁oo	-11.0938
one	-11.0943
tc	-11.0976
▁coins	-11.0985
▁diag	-11.0996
▁status	-11.1023
base	-11.1051
(2	-11.1063
▁tab	-11.1078
▁cup	-11.1086
▁fix	-11.1093
▁menor	-11.1101
]])	-11.1102
▁stringstream	-11.1117
▁dat	-11.1145
append	-11.1167
▁20)	-11.117
▁open	-11.118
oke	-11.1182
co	-11.1183
rem	-11.1194
▁998244353;	-11.1225
fabs	-11.1227
▁!(	-11.1227
.#.#.#.#.	-11.1242
float	-11.1242
▁letters	-11.1248
18;	-11.1252
▁lenb	-11.1261
▁proceed	-11.1262
▁asd	-11.1278
▁itr	-11.1283
▁200000	-11.1284
▁startx	-11.1306
▁""5""	-11.1309
▁par	-11.1318
cast	-11.1324
=0,	-11.1339
▁sup	-11.1365
ct	-11.1384
▁edge	-11.1388
▁rl	-11.1394
▁toupper	-11.144
▁tim	-11.1465
▁contador	-11.1471
▁fi	-11.1496
solve	-11.1497
▁cell	-11.1498
counter	-11.1513
9,	-11.1514
▁counts	-11.1516
signed	-11.1564
▁dig	-11.1583
▁ll	-11.1599
▁ed	-11.1603
▁place	-11.1604
▁Solve	-11.1642
▁32;	-11.167
][1])	-11.1675
Equal	-11.168
ng	-11.1684
----------+""	-11.1689
RA	-11.1693
lo	-11.1709
..........	-11.1727
▁')')	-11.1735
▁graph	-11.1739
col	-11.1754
[105]	-11.1756
▁240	-11.1756
-2]	-11.1759
▁'>'	-11.1781
mber	-11.1787
2=	-11.1832
home	-11.1833
▁stdin	-11.1839
▁100,	-11.1863
▁1000005	-11.1874
line	-11.1883
Icosahedron	-11.1901
▁args	-11.1934
low	-11.1944
▁sq	-11.198
[3][3];	-11.1994
▁10);	-11.1994
es	-11.202
▁')'	-11.204
▁{};	-11.2096
▁11;	-11.2108
▁was	-11.2123
+1][	-11.2131
points	-11.2159
▁bits	-11.2165
▁lst	-11.2184
till	-11.2195
data	-11.2201
▁des	-11.2215
>=	-11.2227
▁86400	-11.2236
▁uneven	-11.2243
▁reduce	-11.2243
▁rounded	-11.2245
▁matrix	-11.225
found	-11.227
▁""4""	-11.2277
oo	-11.2282
▁pw	-11.2284
▁30;	-11.2289
▁100000;	-11.2298
freopen	-11.2299
▁setprecision	-11.2305
▁22	-11.2321
Masha	-11.2322
Dasha	-11.2327
▁rta	-11.2327
ceil	-11.2332
%	-11.2379
▁1000000007)	-11.2394
▁memset	-11.2403
▁prices	-11.2419
▁seq	-11.2432
▁96	-11.2436
2(	-11.2438
▁ms	-11.2441
zxcvbnm	-11.2442
strcpy	-11.2444
▁lucky	-11.2448
▁pop	-11.2449
sdfghjkl	-11.2449
▁final	-11.2453
▁tx	-11.2457
next	-11.2464
▁numOps	-11.2466
▁16	-11.2483
team	-11.2489
▁squared	-11.2494
Max	-11.2501
▁bfs	-11.2501
act	-11.2544
▁levels	-11.2551
▁1].	-11.2575
▁200001	-11.2579
▁udmoves	-11.2609
▁250	-11.2618
▁req	-11.2622
▁'?')	-11.2634
[100000];	-11.2645
▁aa	-11.2649
tr	-11.2656
▁large	-11.2683
dif	-11.2698
#.#.#.#.#.#.	-11.2704
2[0])	-11.2707
...........	-11.2709
exp	-11.2712
the	-11.2723
▁10]	-11.273
UR	-11.2739
Alice	-11.2741
▁md	-11.276
inline	-11.2763
▁turn	-11.2764
▁votes	-11.2779
▁dim	-11.2784
▁cx	-11.2796
dx	-11.2825
not	-11.2837
▁reset	-11.285
[]	-11.2862
▁51	-11.2869
qwertyuiop	-11.2873
▁respectively	-11.2882
[100001];	-11.2888
▁more	-11.2898
▁2}	-11.2901
▁light	-11.2905
ta	-11.2913
▁divisor	-11.2914
▁state	-11.2937
root	-11.2942
][1];	-11.2945
/10	-11.2946
visited	-11.295
----------------	-11.2952
[105][105];	-11.2955
[0]++;	-11.296
whichPosn	-11.2961
Bob	-11.2973
TIE	-11.2973
▁star	-11.2978
▁12)	-11.2986
▁"""	-11.2991
[1010]	-11.3
▁48;	-11.3037
▁men	-11.3045
▁players	-11.309
asilisa	-11.3095
▁rep	-11.3099
▁least	-11.3103
▁positive	-11.3111
4;	-11.3146
[10],	-11.3152
[101][101];	-11.3152
▁gl	-11.3158
compare	-11.3183
kol	-11.3185
[11]	-11.3213
▁lca	-11.3216
dest	-11.3232
▁sm	-11.3254
log	-11.3271
ly	-11.3272
▁bl	-11.3287
▁First	-11.329
▁man	-11.329
▁reg	-11.3301
anako	-11.331
optimization	-11.3322
[200];	-11.3324
word	-11.3325
[200]	-11.3329
▁Rozdil	-11.333
(10	-11.3346
▁limit	-11.3367
7,	-11.3383
▁maxy	-11.3385
▁clock	-11.3387
▁multiplie	-11.3406
subtractions	-11.3412
contest	-11.3424
▁18	-11.3438
▁save	-11.3439
▁del	-11.3446
▁3]	-11.3447
▁pot	-11.3494
▁home	-11.3504
reg	-11.352
▁work	-11.3522
that	-11.3526
▁poly	-11.3528
▁ver	-11.3547
▁weight	-11.3556
▁solution	-11.3571
▁toggle	-11.3588
▁steps	-11.3614
▁MN	-11.3618
▁oven	-11.363
▁13	-11.3635
▁modul	-11.3648
▁27	-11.3661
[0].	-11.3668
▁speed	-11.3671
undefined	-11.3677
]),	-11.3697
1))	-11.3707
Slava	-11.3793
bound	-11.3799
▁UP	-11.3805
▁falsy	-11.3807
▁factor	-11.3811
▁DOWN	-11.3825
▁5];	-11.385
▁2000	-11.3866
day	-11.3878
▁head	-11.3879
---------+""	-11.389
▁el	-11.3901
unique	-11.3917
Danil	-11.3931
Nikita	-11.3931
er	-11.3936
Olya	-11.3937
DL	-11.3985
Ann	-11.3987
ary	-11.3993
▁sc	-11.4001
=3	-11.4006
▁10000000	-11.4013
▁""-""	-11.4015
alue	-11.4023
nto	-11.4034
[100001]	-11.4042
▁""1/2""	-11.4068
▁buf	-11.4072
dist	-11.4088
............	-11.4092
5;	-11.4095
▁501	-11.4097
rest	-11.4112
▁220	-11.4122
(-1)	-11.4136
▁""|#.	-11.4148
▁1));	-11.415
▁pl	-11.4164
▁whichPosn	-11.4186
Ciel	-11.4188
ULDR	-11.4189
▁102	-11.4189
[10000];	-11.4222
▁fy	-11.4222
▁lena	-11.424
▁money	-11.4247
▁13)	-11.4255
▁ones	-11.4268
▁clo	-11.4275
dg	-11.4287
▁captain	-11.4292
ARD	-11.4294
▁CUR	-11.4295
▁decreasing	-11.4297
(1);	-11.4314
▁Second	-11.4321
▁Pic	-11.4334
▁remaining	-11.4335
▁participants	-11.4367
▁xay	-11.4378
▁vs	-11.4381
▁put	-11.4402
+1)	-11.4404
▁chess	-11.4406
ignore	-11.4445
UL	-11.4456
▁nex	-11.4472
▁35	-11.4488
>())	-11.4526
▁width	-11.455
▁every	-11.4551
▁nonzero	-11.4551
▁LCM	-11.4559
▁""5/6""	-11.4576
▁""1/3""	-11.4577
▁""2/3""	-11.4577
▁act	-11.4582
▁jum	-11.4587
▁chang	-11.4588
-2	-11.459
▁65	-11.4605
▁qq	-11.4614
upper	-11.4634
▁ys	-11.4663
jj	-11.4684
mm	-11.4688
▁sumr	-11.4696
need	-11.4697
isdigit	-11.4724
+2]	-11.4742
▁exe	-11.4765
▁fx	-11.4794
To	-11.4796
▁bottles	-11.482
▁5001	-11.4822
▁""+""	-11.4824
[3][3]	-11.4827
▁rotate	-11.4833
[100010]	-11.4834
-8	-11.4836
▁salt	-11.4841
as	-11.4843
increase	-11.485
▁sp	-11.4852
turn	-11.4855
▁increas	-11.4855
2--;	-11.486
score	-11.4864
▁bills	-11.4869
[100]	-11.4888
▁105;	-11.4898
▁answ	-11.4907
▁team	-11.4927
▁words	-11.4946
[30];	-11.495
▁'[')	-11.4954
▁),	-11.4962
▁names	-11.4964
[200005];	-11.4974
ome	-11.4992
▁fff	-11.4993
▁answers	-11.5
▁miny	-11.5014
-------------+	-11.5016
DR	-11.5023
)((	-11.5028
mxm	-11.5045
▁123	-11.5048
[101]	-11.5052
▁amount	-11.5071
▁Need	-11.5093
▁execute	-11.5095
▁largest	-11.5096
▁loss	-11.5105
▁10005	-11.5106
▁gg	-11.5131
▁hasil	-11.5132
hash	-11.5135
▁contains	-11.5156
▁bob	-11.5168
▁matriz	-11.5172
▁sh	-11.5195
>>	-11.522
▁sumz	-11.522
▁""|""	-11.526
owel	-11.5282
isprime	-11.5304
▁16)	-11.531
▁dos	-11.5332
digit	-11.5336
[30]	-11.534
▁1000000;	-11.5341
▁factorial	-11.5362
▁zz	-11.5371
▁bottom	-11.5373
▁cha	-11.538
[1].	-11.5387
▁36	-11.5393
reate	-11.5458
inp	-11.546
[10000]	-11.5465
▁48)	-11.548
-1"	-11.5489
>0	-11.549
▁done	-11.5509
▁mode	-11.5513
▁mo	-11.5521
[6];	-11.5534
cek	-11.5547
4"	-11.5562
▁tar	-11.5567
open	-11.5579
9)	-11.5588
absolute	-11.5613
▁hav	-11.5637
▁method	-11.5647
▁Output	-11.5647
▁lowercase	-11.5648
▁other	-11.5672
▁stone	-11.5681
▁static	-11.5688
▁cards	-11.5689
▁201	-11.5693
▁que	-11.5693
,./""	-11.5695
▁vest	-11.5698
▁password	-11.57
▁ope	-11.5728
▁command	-11.573
▁Cnt	-11.5734
div	-11.5737
▁record	-11.574
par	-11.5788
▁28	-11.5795
.#.#.#.	-11.5798
▁present	-11.5802
[5][5];	-11.5809
▁deg	-11.5814
▁Sum	-11.582
▁(7	-11.5847
▁'/'	-11.5856
▁old	-11.5861
.............	-11.5862
▁2001	-11.5862
#.#.#.#.#.#.#.	-11.5872
#.#.#.#.#.|.|)""	-11.5881
6;	-11.5889
▁jump	-11.5912
▁code	-11.5912
▁part	-11.592
.#.#.#.#.#.#.	-11.5924
▁An	-11.5933
Elephant	-11.5934
Bear	-11.5934
▁200010	-11.5938
▁jumlah	-11.5941
ve	-11.5942
▁qtb	-11.5949
▁player	-11.5952
▁indx	-11.596
▁summ	-11.5961
▁999999	-11.5961
▁distanc	-11.5969
▁previous	-11.5973
erate	-11.5975
)]	-11.5988
▁interval	-11.6005
▁xmax	-11.6014
▁endy	-11.6014
▁mishka	-11.6015
▁92	-11.6017
▁decimal	-11.606
[55];	-11.6069
_0	-11.6083
▁maps	-11.6095
()))	-11.6098
▁9,	-11.6114
▁',	-11.6119
▁29	-11.6125
list	-11.6138
*(	-11.6149
stream	-11.6151
------------+	-11.6157
impossible	-11.6162
▁short	-11.6165
EASY	-11.6191
▁(4	-11.6191
▁1]++;	-11.6199
fffffff	-11.6204
▁pairs	-11.6205
[2][	-11.6207
▁10000;	-11.6226
▁sw	-11.6227
aeiou	-11.6237
▁label	-11.6244
▁""***""	-11.6245
▁mxv	-11.6252
▁DFS	-11.6253
ay	-11.6254
............|""	-11.6259
▁convert	-11.6266
]=1	-11.6272
▁leaf	-11.6279
ad	-11.6296
▁loc	-11.6306
▁crew	-11.6313
▁parent	-11.632
▁ats	-11.6328
▁tree	-11.6334
▁its	-11.6343
▁inch	-11.6347
▁2];	-11.635
▁Chris	-11.6356
▁Mishka	-11.6358
▁cmd	-11.6376
▁1000000009;	-11.6383
sz	-11.6399
ac	-11.6403
letter	-11.6417
▁dg	-11.6468
>(	-11.6469
▁"">""	-11.6473
▁""<""	-11.6479
]-	-11.6501
▁22)	-11.6503
gap	-11.6508
--------+""	-11.6546
]]]	-11.6547
oyomi	-11.655
▁fastIo	-11.6557
▁getInt	-11.6557
▁program	-11.6557
▁inches	-11.6579
ign	-11.6585
▁cp	-11.6585
▁floor	-11.6594
▁24	-11.6606
-""	-11.6617
▁Blue	-11.6624
[1000]	-11.6624
lol	-11.6633
▁memo	-11.6649
▁carry	-11.6651
square	-11.6654
▁5000	-11.6658
▁poww	-11.6661
▁(3	-11.6669
▁pro	-11.667
[60]	-11.6676
3[	-11.6694
▁48);	-11.6697
vowel	-11.6704
▁60)	-11.6725
▁ysum	-11.6753
▁maxN	-11.6756
.............|""	-11.6765
ut	-11.6775
freq	-11.6804
best	-11.6815
.#.#.#.#.#.#.|.|	-11.6818
▁rot	-11.6829
halfplus	-11.6833
tp	-11.685
5,	-11.6876
[1000000];	-11.6877
▁given	-11.6879
▁'|'	-11.688
▁cntr	-11.6912
yes	-11.6914
▁spec	-11.6924
▁th	-11.6927
▁pole	-11.6939
ash	-11.694
▁'5')	-11.6951
▁area	-11.6954
▁have	-11.6958
▁take	-11.6966
▁""1/1""	-11.6966
▁15;	-11.6968
2[""	-11.6969
..............	-11.6974
▁box	-11.6977
▁active	-11.6981
▁mmax	-11.6994
[1010];	-11.7013
yy	-11.7043
▁buff	-11.7046
test	-11.7066
▁11)	-11.7066
▁cad	-11.7076
[0]]	-11.7084
▁bigge	-11.7095
rr	-11.7105
level	-11.712
▁plen	-11.7126
▁soroban	-11.7128
▁sumy	-11.713
half	-11.7167
um	-11.717
▁endx	-11.7172
pp	-11.7173
▁ep	-11.7176
le	-11.7188
ajout	-11.719
Alien	-11.7206
hello	-11.7206
permutation	-11.7206
▁depth	-11.7212
▁invert	-11.7212
ULL	-11.7217
▁coord	-11.7236
▁person	-11.7236
▁banyak	-11.7236
▁raw	-11.7241
▁chris	-11.7245
ex	-11.7254
ios	-11.7269
▁loct	-11.7273
▁posy	-11.7275
)))	-11.7275
▁maxs	-11.7276
-7	-11.728
▁bisa	-11.7288
][3]	-11.7288
▁frest	-11.7293
▁sumc	-11.7302
[1000005];	-11.7318
▁pri	-11.7333
2-	-11.7334
▁ad	-11.7337
▁cakes	-11.7341
▁games	-11.735
pri	-11.7368
▁stones	-11.7384
1[""	-11.7402
[12]	-11.7409
[20];	-11.7416
sign	-11.7426
▁wp	-11.7465
▁=0	-11.7466
from	-11.7475
...........|""	-11.751
▁sumA	-11.7512
▁alt	-11.7533
visit	-11.7537
colom	-11.7541
lucky	-11.7541
Impossible	-11.7541
depth	-11.7547
▁infinitely	-11.7558
).	-11.7567
▁acum	-11.759
▁300	-11.7591
▁qpow	-11.76
▁100001;	-11.7623
▁3])	-11.7631
cont	-11.7676
[5][5]	-11.7692
▁palindrome	-11.7693
▁func	-11.7711
-----------+	-11.7717
▁black	-11.7732
#.#.#.#.#.|.|""	-11.7733
▁tr	-11.7734
▁lef	-11.7735
((3	-11.7742
▁ymin	-11.7767
▁hang	-11.7776
▁vet	-11.7778
▁resta	-11.7784
▁po	-11.7795
sub	-11.7859
#.#.#.#.|.|)""	-11.7862
▁400	-11.7862
layer	-11.7872
[2005];	-11.7889
hi	-11.7891
▁prealoc	-11.7914
▁bigmod	-11.7915
▁tabla	-11.7916
dep	-11.7925
▁numOf	-11.7929
dir	-11.7933
▁ANS	-11.7938
▁lzl	-11.7939
▁liter	-11.7941
▁pv	-11.7949
▁choose	-11.7952
▁difference	-11.7953
▁biao	-11.7965
▁tstep	-11.7966
▁20000	-11.7973
▁contiguous	-11.7979
▁computer	-11.8009
▁most	-11.801
▁mask	-11.8014
1),	-11.8019
▁siz	-11.8022
[55][55];	-11.8024
▁hotels	-11.8031
card	-11.8037
][2];	-11.804
▁bao	-11.804
▁','	-11.8052
▁divis	-11.8055
▁gesture	-11.8071
OT	-11.8092
gets	-11.81
1(	-11.8102
mat	-11.8107
▁dot	-11.8112
▁bak	-11.8116
▁card	-11.8128
'))	-11.8132
▁getint	-11.8141
+1,	-11.8147
iterat	-11.8188
strlen	-11.8199
▁150	-11.8211
▁sec	-11.8218
▁beat	-11.8233
▁'5'	-11.8241
moves	-11.8242
▁dr	-11.8251
judge	-11.826
▁""1	-11.8264
fixed	-11.8269
inf	-11.827
edge	-11.827
zhuangtai	-11.8278
mymap	-11.829
used	-11.829
▁danik	-11.8297
▁slogan	-11.8297
▁condition	-11.8298
▁location	-11.8311
▁22;	-11.8325
▁finall	-11.8329
▁1005;	-11.8337
[100010];	-11.8346
▁biaoji	-11.8352
▁'}'	-11.8361
[50];	-11.8377
ck	-11.8379
▁prf	-11.8403
#.#.#.#.|.|""	-11.8404
▁misha	-11.8405
▁lie	-11.8416
▁lsum	-11.8427
▁qta	-11.8432
[100][100];	-11.8441
cc	-11.8445
▁kanan	-11.8446
][0];	-11.8453
▁OO	-11.8459
pr	-11.8468
▁node	-11.8476
[100000	-11.8476
▁search	-11.8502
▁1.0)	-11.8509
▁200;	-11.8516
▁acc	-11.8521
▁tmo	-11.8527
▁1]]	-11.8537
[26];	-11.8557
▁'!'	-11.8583
post	-11.8584
▁""3""	-11.8588
▁sir	-11.8593
dy	-11.8604
[51]	-11.8605
#.#.#.#.#.|	-11.8635
8,	-11.8639
▁sumB	-11.8643
endl	-11.8644
[50]	-11.865
▁E	-11.8654
3372036854775807	-11.8663
9+7	-11.8663
▁suff	-11.8664
flog	-11.8666
▁query	-11.8668
▁voters	-11.8669
▁jj	-11.8677
▁122	-11.868
▁205	-11.869
▁towels	-11.8693
▁'-';	-11.8703
▁imax	-11.8706
▁workTime	-11.8711
▁Map	-11.8722
▁height	-11.8741
▁deq	-11.8748
)1	-11.875
▁marks	-11.875
▁soldier	-11.8753
setf	-11.8757
npos	-11.8765
▁di	-11.879
marks	-11.8816
▁de	-11.8837
▁err	-11.8845
▁cpy	-11.886
[10][10];	-11.8873
all	-11.8897
price	-11.8897
▁numb	-11.8902
▁1001;	-11.8917
▁ds	-11.8929
▁cel	-11.8942
olume	-11.8955
[60];	-11.8961
==	-11.898
current	-11.9004
▁ways	-11.9013
▁3*	-11.9022
[1]++;	-11.9059
▁qua	-11.906
▁maxlen	-11.9063
adj	-11.9064
32	-11.9065
▁ev	-11.9066
▁negative	-11.9069
▁""25""	-11.9069
▁ymax	-11.9072
▁1][2]	-11.9074
isPrime	-11.9078
▁decrypt	-11.9083
▁quotient	-11.9083
▁smaller	-11.9083
▁bus	-11.9084
▁powmod	-11.9087
▁31}	-11.9089
▁maxa	-11.9089
▁ihash	-11.9097
▁linha	-11.9108
poly	-11.9109
▁people	-11.9112
▁larger	-11.9118
▁grest	-11.912
▁palin	-11.9123
joy	-11.9124
▁bal	-11.9139
▁four	-11.9143
▁Mod	-11.9154
LO	-11.9158
▁Cmp	-11.916
..........|""	-11.9168
tstep	-11.9181
▁pod	-11.9184
▁123;	-11.9184
▁ccw	-11.9184
▁1},	-11.919
▁tims	-11.9193
▁kkk	-11.9201
ult	-11.9211
▁dest	-11.9215
rbegin	-11.9216
▁off	-11.9219
▁""7""	-11.9232
▁10];	-11.9239
▁prevc	-11.9249
▁newsum	-11.9252
28,	-11.9253
▁xmin	-11.9263
▁""1/6""	-11.9264
▁60,	-11.9301
▁'<')	-11.9304
primes	-11.9344
▁ctx	-11.9362
ped	-11.9364
Au	-11.9373
led	-11.9376
valid	-11.9381
[102];	-11.939
TO	-11.9401
▁dsa	-11.9412
[1000	-11.9424
1-	-11.9433
ector	-11.9449
do	-11.9453
▁app	-11.9472
▁pause	-11.9485
▁geek	-11.9486
▁jumlahgenap	-11.9486
eros	-11.9488
▁TEAM	-11.9498
▁modexp	-11.9502
▁vowel	-11.9514
▁orange	-11.9514
[10005];	-11.9517
TESTS	-11.9528
▁li	-11.953
▁26)	-11.9533
exist	-11.9538
▁Alex	-11.9544
money	-11.9546
▁timr	-11.955
[11];	-11.9552
cup	-11.9552
▁page	-11.9554
▁den	-11.9555
▁pwr	-11.9564
▁seen	-11.9565
▁bs	-11.9574
][0])	-11.9587
/5	-11.96
▁25)	-11.9609
mi	-11.961
▁cop	-11.9643
▁counta	-11.9652
minimum	-11.9654
▁angle	-11.966
▁Correct	-11.9676
▁1000001	-11.9682
----------+	-11.9682
]));	-11.9692
▁lc	-11.9706
▁doit	-11.971
()));	-11.9729
INT	-11.9733
vv	-11.974
▁5005	-11.9742
▁pairt	-11.9744
▁nadj	-11.9778
▁tdiff	-11.9781
▁divs	-11.9783
getchar	-11.9786
▁isdigit	-11.9797
▁5);	-11.9812
▁LEFT	-11.9824
[55]	-11.9837
-|""	-11.9837
-6	-11.9843
app	-11.9846
numberOfElements	-11.9848
9"	-11.9874
▁To	-11.9895
▁'2'	-11.9903
▁prohibited	-11.992
▁wait	-11.9948
father	-11.9951
+2	-11.9966
store	-11.9967
▁army	-11.9969
▁600	-11.9981
▁binary	-11.9982
▁mmin	-11.9983
▁column	-11.9987
+1]-	-11.9993
[27]	-11.9997
med	-12
▁discounts	-12
▁90	-12.0001
tt	-12.0017
-1.0	-12.0021
▁per	-12.0028
▁palabra	-12.0031
▁text	-12.0034
▁10010	-12.0045
▁Anton	-12.005
big	-12.0074
bak	-12.0077
▁fail	-12.0093
▁ref	-12.0104
▁9999999	-12.0114
dot	-12.0116
(10)	-12.0133
▁dd	-12.0137
▁hb	-12.0138
ver	-12.0143
▁maxv	-12.0143
▁pe	-12.0172
▁Time	-12.0173
▁prep	-12.0178
dem	-12.0179
▁isgro	-12.0181
1+	-12.0185
▁minP	-12.0191
▁vasya	-12.0207
▁maxl	-12.0212
▁maxcnt	-12.0215
ong	-12.0226
1.0	-12.0229
*2	-12.0242
answer	-12.0245
▁101,	-12.0268
▁hor	-12.0278
6,	-12.0279
te	-12.0305
se	-12.0313
counts	-12.035
#.#.#.#.|	-12.0352
players	-12.0354
Found	-12.0354
▁505	-12.0357
▁atoi	-12.0359
▁ios	-12.0365
1=	-12.0368
stripe	-12.0369
+1)/2	-12.0371
▁jarak	-12.0374
▁alph	-12.0375
transform	-12.0379
▁smL	-12.038
▁small	-12.0381
▁cant	-12.0383
▁ud	-12.0383
▁posx	-12.0384
▁smR	-12.0385
▁End	-12.0388
▁nearest	-12.039
▁comparator	-12.039
Min	-12.0392
▁desk	-12.0402
days	-12.0404
▁47	-12.0415
▁numedges	-12.0416
high	-12.0416
[1000][1000]	-12.0417
(1)	-12.0421
▁satu	-12.0423
▁enemy	-12.0439
▁fo	-12.0448
type	-12.0448
▁dua	-12.0451
[0]--;	-12.0453
▁""=""	-12.0457
match	-12.0459
▁cols	-12.046
▁drink	-12.0465
86400	-12.0467
udmoves	-12.047
soroban	-12.0477
▁kq	-12.0478
▁anton	-12.0479
short	-12.0479
▁sisa	-12.0479
▁primos	-12.049
odd	-12.0492
4)	-12.0499
▁Danik	-12.051
▁tempm	-12.0511
▁maxSize	-12.0516
▁numver	-12.0521
▁criba	-12.0523
▁OUTPUT	-12.0541
▁If	-12.0548
()])	-12.0552
▁foo	-12.0553
▁fir	-12.0561
decrease	-12.0571
▁(-1)	-12.0571
INF	-12.0587
nums	-12.059
▁nuts	-12.0609
[1][2])	-12.0618
▁yf	-12.0633
("""")	-12.0635
▁LO	-12.0638
▁possible	-12.0642
[200000	-12.0643
▁opt	-12.0649
▁0.5	-12.065
[4])	-12.0655
▁sta	-12.0658
▁yb	-12.0677
are	-12.0684
▁Ehab	-12.0715
esp	-12.0723
▁woman	-12.0726
▁Mahmoud	-12.0732
▁def	-12.0733
▁pa	-12.0733
zero	-12.0738
▁1000010	-12.0756
▁pointe	-12.0771
]-'0'	-12.0782
▁rad	-12.0788
oy	-12.081
ncr	-12.082
|""	-12.0821
▁2147483647	-12.0833
[1000006]	-12.0834
▁7-	-12.0838
showpoint	-12.0846
▁shengyu	-12.085
▁digits	-12.0853
▁occ	-12.0871
ha	-12.0875
▁INFF	-12.0876
▁(26	-12.0877
▁oil	-12.0878
#.#.#.|.|)""	-12.0881
.........|""	-12.0883
▁arra	-12.0884
iter	-12.0884
board	-12.0898
▁Next	-12.0899
...............	-12.0905
▁97)	-12.0916
▁smallest	-12.0919
hh	-12.0928
▁yellow	-12.093
▁only	-12.0933
grid	-12.0939
▁180)	-12.0942
3);	-12.0953
lessons	-12.0962
▁1000000000;	-12.0964
status	-12.0965
Bulbasaur	-12.0978
8;	-12.0983
key	-12.0994
▁tag	-12.0997
[110][110];	-12.1002
▁qmarks	-12.1003
fb	-12.1005
than	-12.1007
▁INPUT	-12.1042
▁getline	-12.1043
▁3.14159	-12.1048
▁pointers	-12.1051
▁Minb	-12.1059
▁fla	-12.106
err	-12.1066
▁hj	-12.1087
=-1	-12.1132
maximum	-12.1139
[2].	-12.1152
cn	-12.1161
2),	-12.1169
)*	-12.1172
▁100100	-12.1175
(0	-12.1184
▁4);	-12.1187
▁may	-12.1193
[100	-12.1199
▁500;	-12.1204
Arr	-12.1206
fl	-12.1208
▁sss	-12.1223
with	-12.1231
way	-12.1245
▁21)	-12.125
▁97;	-12.1257
▁nowp	-12.1268
▁abc	-12.1271
▁gc	-12.1276
100,	-12.134
▁remain	-12.1344
"}	-12.1348
▁third	-12.1349
▁qClose	-12.135
▁inicial	-12.135
▁perColor	-12.135
▁uppercase	-12.135
▁jumlahganjil	-12.135
▁process	-12.1352
▁LINF	-12.1353
▁numero	-12.1353
▁differ	-12.1358
▁suck	-12.1358
.|	-12.1358
▁fuck	-12.1358
▁walk	-12.1384
▁buffer	-12.1386
▁friends	-12.1393
▁beginat	-12.1395
▁305	-12.1398
▁31;	-12.1401
▁tank	-12.1401
[1][1])	-12.1419
▁xxx	-12.1419
[10010];	-12.1431
▁nxt	-12.1439
Number	-12.1439
▁deque	-12.144
▁minm	-12.145
mas	-12.1451
▁tri	-12.1451
▁Incorrect	-12.1459
▁'!')	-12.1461
by	-12.1472
▁fpow	-12.1475
[1]);	-12.1483
▁MAXT	-12.1484
[15]	-12.1484
▁send	-12.1484
winner	-12.1485
▁ppow	-12.1486
▁sheets	-12.1486
fill	-12.1489
][0],	-12.1494
▁Way	-12.1496
isalpha	-12.1503
.#.#.#.#.#.#.#.|	-12.1508
ns	-12.1514
▁cups	-12.1519
▁fac	-12.1525
▁commands	-12.1535
▁inve	-12.1535
SI	-12.155
▁flagA	-12.1558
(360	-12.1561
[120];	-12.1579
▁zsum	-12.1584
▁slot	-12.1589
▁100000000	-12.159
over	-12.1595
▁1][2])	-12.1597
▁122)	-12.1609
][1],	-12.1617
3[0]	-12.1632
#.#.#.#.#.#.#.#.	-12.1645
amt	-12.1647
asd	-12.1691
▁ust	-12.17
▁freopen	-12.1709
▁chk	-12.171
▁""4	-12.1711
sp	-12.1718
▁sag	-12.1729
[0][0],	-12.1749
'])	-12.1754
▁14	-12.1805
▁lin	-12.1805
el	-12.1808
▁pb	-12.1818
]][	-12.1822
▁999999999	-12.1824
▁((1	-12.1837
#.#.#.|.|""	-12.1842
▁2.0	-12.1854
▁follow	-12.1866
(""-1"")	-12.1873
▁error	-12.1879
aa	-12.1885
▁blyat	-12.1894
▁degree	-12.1894
▁boxes	-12.1894
▁horizontal	-12.1895
eight	-12.1907
▁gla	-12.1909
▁nextPrime	-12.1914
▁capacity	-12.1914
▁denominator	-12.1914
oop	-12.1918
▁50;	-12.1924
▁pangkat	-12.1937
▁forward	-12.1939
▁conv	-12.1945
▁bitset	-12.1952
▁101;	-12.196
ul	-12.1961
▁Misha	-12.1962
▁medals	-12.1963
▁hangx	-12.1965
▁coty	-12.1965
▁'2')	-12.1984
_2	-12.1988
▁factors	-12.1989
▁rprev	-12.2
book	-12.2002
py	-12.2033
▁'6'	-12.2035
()"	-12.2043
isupper	-12.2072
▁locg	-12.2072
▁normal	-12.2075
▁nama	-12.208
beat	-12.2084
---------+	-12.2093
[200005]	-12.2095
[1]))	-12.2099
ways	-12.2107
▁he	-12.2111
▁pas	-12.2116
(0.0);	-12.2126
▁(5	-12.213
[2][1])	-12.214
▁2));	-12.2159
▁(8	-12.2165
▁prefix	-12.2187
chat	-12.2215
▁pd	-12.2219
dd	-12.2222
[105][105]	-12.2238
▁odds	-12.2247
ax	-12.2272
▁Bulbasaur	-12.2273
▁'3'	-12.2282
▁maxsum	-12.2309
be	-12.2312
▁neo	-12.2313
bru	-12.2317
▁dc	-12.2328
'};	-12.2335
def	-12.2344
[201]	-12.2361
▁block	-12.2365
▁xb	-12.2366
▁colors	-12.2374
even	-12.2376
▁rr	-12.2409
[2001];	-12.2412
▁face	-12.2413
erosOnes	-12.2427
▁mindis	-12.2427
.#.|	-12.2428
(""0"")	-12.2428
[8][8]	-12.2429
▁ziro	-12.2431
▁encrypt	-12.2431
▁maxExcl	-12.2431
▁brainfuck	-12.2431
▁mohi	-12.2433
▁null	-12.2433
▁trump	-12.2434
.#.#.|	-12.2435
00	-12.2436
▁File	-12.2436
▁foot	-12.2439
▁200100	-12.2445
▁mius	-12.2446
▁highest	-12.2451
.#.#.#.|	-12.2453
.#.#.#.#.#.#.|	-12.2458
[(	-12.2458
▁caso	-12.2459
.#.#.#.#.|	-12.2462
_4	-12.2463
.#.#.#.#.#.|	-12.2468
▁111	-12.2468
▁limak	-12.2469
▁matching	-12.2471
▁dict	-12.2473
#.#.#.#.#.#.|	-12.2483
▁']'	-12.2484
']['	-12.2489
▁17	-12.2489
▁rides	-12.2489
▁cntfloat	-12.249
▁soma	-12.2494
down	-12.2498
▁merge	-12.25
▁"":""	-12.2501
▁lat	-12.2502
▁(*	-12.2507
▁huruf	-12.2511
▁busca	-12.2512
▁4)]	-12.2513
startx	-12.2522
▁mole	-12.2526
acos	-12.2529
minmum	-12.2531
▁blu	-12.2539
5],	-12.2541
▁xorr	-12.2548
▁welfare	-12.2554
ber	-12.2566
▁prim	-12.2587
10;	-12.2591
▁Start	-12.2594
▁minIncl	-12.2596
▁perm	-12.2598
▁pntr	-12.2599
▁xsum	-12.2604
good	-12.2611
▁path	-12.2617
▁Dp	-12.262
▁maks	-12.2628
▁**	-12.2628
point	-12.263
rs	-12.2631
TOWARDS	-12.2633
une	-12.2633
▁seg	-12.2646
▁sym	-12.265
fact	-12.2654
dig	-12.266
▁1][2]))	-12.2661
▁jol	-12.2662
decimal	-12.2675
can	-12.271
usa	-12.2731
▁csx	-12.2733
▁la	-12.2736
▁modd	-12.2743
▁0);	-12.2746
▁ant	-12.2746
3++;	-12.2747
▁Num	-12.2754
▁slen	-12.2774
▁restaurants	-12.2782
gh	-12.2797
fingers	-12.281
Count	-12.2819
tam	-12.2824
▁charnum	-12.2831
▁isn	-12.2837
▁gov	-12.284
[12];	-12.2868
▁10001	-12.2882
[500];	-12.2894
▁40	-12.2911
▁xs	-12.2912
▁niz	-12.2913
▁'{'	-12.2934
▁jwb	-12.2945
15	-12.2958
'}	-12.2985
▁umb	-12.2992
▁lens	-12.2999
▁O	-12.3
▁righ	-12.3004
Gym	-12.3015
Infinite	-12.3015
eaten	-12.3016
[15][15]	-12.3016
(""1"")	-12.3018
▁minCol	-12.3019
▁maxRow	-12.3019
▁minRow	-12.3019
▁maxCol	-12.3019
▁olnum	-12.3019
▁indimpar	-12.302
▁indpar	-12.302
▁assert	-12.3021
▁lenght	-12.3023
▁choc	-12.3024
▁ori	-12.3033
[1001][1001]	-12.3036
▁malloc	-12.3039
▁numPairs	-12.3039
]+	-12.304
▁hari	-12.3053
▁initial	-12.3059
▁lvl	-12.306
▁stck	-12.3066
▁100002	-12.3073
▁bo	-12.3078
▁midTime	-12.3079
▁orgStr	-12.3082
▁posiciones	-12.3084
▁findfa	-12.3087
▁97]	-12.3092
▁MAT	-12.3094
sx	-12.3094
▁((2	-12.3104
▁lft	-12.311
▁stud	-12.3119
▁this	-12.3121
▁Yellow	-12.3127
▁jumps	-12.3128
power	-12.3133
▁90)	-12.3135
▁before	-12.314
▁byte	-12.3141
)/	-12.3141
▁19	-12.3147
sir	-12.3149
▁7);	-12.3153
▁pen	-12.3183
▁syl	-12.3186
▁isp	-12.319
file	-12.3192
▁Cb	-12.3194
▁lines	-12.321
▁nike	-12.3215
▁candidate	-12.3215
distance	-12.3234
pass	-12.3243
tolower	-12.3247
Finite	-12.3251
▁era	-12.3255
diag	-12.3258
leafeon	-12.326
mnm	-12.3261
flareon	-12.3262
sylveon	-12.3264
umbreon	-12.3266
bacterias	-12.3269
search	-12.3269
isgro	-12.3271
prefix	-12.3275
gov	-12.3278
▁seed	-12.3279
▁till	-12.3281
▁stat	-12.3289
▁las	-12.3291
(8);	-12.33
▁mass	-12.3309
▁27)	-12.3321
▁flat	-12.3323
inv	-12.3343
▁(0)	-12.3357
ms	-12.3362
▁nam	-12.3362
▁child	-12.3375
maxs	-12.3393
▁taken	-12.3395
▁sorted	-12.3403
rt	-12.3405
[11][11];	-12.3421
▁fingers	-12.3422
▁fim	-12.3436
▁inter	-12.3441
▁sam	-12.3458
▁main	-12.3463
▁1000006	-12.3466
ls	-12.3521
=1000000007	-12.355
[1]--;	-12.3557
1][0],	-12.3559
ada	-12.3565
[0][1];	-12.3577
lose	-12.3599
[13]	-12.3599
▁maxc	-12.3605
▁Mina	-12.3618
buil	-12.3623
Dec	-12.3626
[101][101]	-12.3627
▁ite	-12.3639
sy	-12.3639
getFactorization	-12.364
▁momo	-12.364
▁wynik	-12.3643
▁negro	-12.3643
▁salir	-12.3643
▁blanco	-12.3644
▁amazing	-12.3644
▁FindLen	-12.3644
[10000000]	-12.3644
▁nogover	-12.3644
▁lowest	-12.3644
▁occurances	-12.3644
▁tramp	-12.3644
▁tpresents	-12.3644
▁gotodown	-12.3644
▁destination	-12.3644
▁-2019	-12.3644
▁colCount	-12.3645
▁fastio	-12.3646
debug	-12.3648
▁ganjil	-12.3657
▁iskom	-12.3665
▁nilai	-12.3665
▁previousConte	-12.3666
▁1][0])	-12.3673
ff	-12.3674
▁tep	-12.3676
▁cs	-12.3684
▁passengers	-12.3689
▁divisores	-12.369
▁valori	-12.3692
▁110;	-12.3696
▁city	-12.3704
hang	-12.3707
▁slice	-12.3707
▁wrong	-12.3711
▁profits	-12.3712
▁adder	-12.3718
oys	-12.372
▁minute	-12.372
▁Chess	-12.3734
▁posibles	-12.3736
▁lime	-12.3736
[2005]	-12.3736
ts	-12.374
▁'3')	-12.3741
▁tra	-12.3747
[5])	-12.3748
]];	-12.3749
▁ptr	-12.3749
▁eaten	-12.3751
tem	-12.3751
........|""	-12.3752
▁inc	-12.3756
▁maxle	-12.3761
▁256	-12.3764
▁maxcount	-12.3766
▁""8""	-12.377
▁cCount	-12.3776
▁pet	-12.3778
▁4000	-12.3788
▁(10	-12.3798
(((3	-12.3798
ant	-12.3804
▁2000000000	-12.3804
[40]	-12.3818
▁compari	-12.3819
(*	-12.3823
[2000];	-12.3833
▁nimpar	-12.3844
▁ha	-12.3849
▁od	-12.3867
Len	-12.3876
▁un	-12.3877
▁suf	-12.388
▁4))	-12.3891
▁incremented	-12.3897
lower	-12.3899
side	-12.391
▁""[]""	-12.3916
hase	-12.3917
Total	-12.3919
table	-12.3924
discount	-12.3925
jolteon	-12.3931
glaceon	-12.3931
-1-	-12.3937
▁ho	-12.3941
▁cdays	-12.3942
▁yt	-12.3952
cap	-12.3954
maxy	-12.3956
spf	-12.3962
-1]+	-12.3962
▁gp	-12.3969
tab	-12.3975
abc	-12.398
ngh	-12.3992
▁Bob	-12.4002
2];	-12.4004
▁checker	-12.4008
▁load	-12.401
▁ops	-12.4011
▁1]),	-12.4012
far	-12.4021
(12)	-12.4021
arg	-12.4022
ifstream	-12.4032
incremented	-12.4033
▁Alice	-12.4038
cr	-12.4041
▁maxnum	-12.4051
go	-12.4082
▁(-1	-12.4091
MOD	-12.4092
▁cut	-12.4095
▁timer	-12.4096
gr	-12.4112
bus	-12.4113
▁(__	-12.4114
▁divi	-12.4118
)/2	-12.4123
240	-12.4138
ele	-12.4147
coun	-12.4157
ust	-12.4163
[400];	-12.4171
[9];	-12.4179
▁npar	-12.4191
pw	-12.4192
▁rx	-12.4194
2])	-12.4207
mode	-12.422
▁rank	-12.423
▁(_	-12.4231
currnum	-12.4239
item	-12.4252
▁3000	-12.4267
▁0.0	-12.4275
▁1111	-12.4281
[15];	-12.4287
State	-12.4306
wheniEndFromLeft	-12.4306
▁woch	-12.4307
▁capital	-12.431
▁getChar	-12.431
▁indefinitely	-12.4311
▁getAns	-12.4311
▁losp	-12.4311
▁patt	-12.4312
▁frr	-12.4318
▁losn	-12.4322
']);	-12.4323
▁24;	-12.4326
▁kecil	-12.4328
▁nrod	-12.4332
▁shelves	-12.4333
[51][51];	-12.4341
▁groups	-12.4343
▁1][1])	-12.4348
▁bul	-12.4351
▁actual	-12.4355
▁izq	-12.4356
▁bill	-12.4356
▁blockb	-12.4356
▁chance	-12.4357
▁gb	-12.4359
▁maap	-12.436
▁ke	-12.4362
(8	-12.4362
▁norm	-12.4363
▁rla	-12.4366
▁texto	-12.4367
▁tipe	-12.4372
[200000];	-12.4377
.#.#.#.#.#.#.#.	-12.438
▁Ids	-12.438
▁yelo	-12.438
▁tmpb	-12.4381
▁Freq	-12.4381
▁spyke	-12.4382
▁spykeId	-12.4383
▁99999999	-12.4383
▁Primes	-12.4387
bal	-12.4394
▁NULL	-12.4397
pointer	-12.4398
▁minimun	-12.44
▁coin	-12.4405
▁ifstream	-12.4406
▁suml	-12.4411
.............|	-12.4412
▁mc	-12.4413
▁sumx	-12.4421
[305];	-12.4422
............|	-12.4422
▁blocka	-12.4424
▁press	-12.443
▁boox	-12.4441
▁Res	-12.4443
▁maxr	-12.4448
▁100009	-12.445
▁'}')	-12.4457
▁360;	-12.4459
▁mima	-12.4465
▁ten	-12.447
▁gh	-12.4475
▁100005;	-12.4482
▁works	-12.4482
▁rtn	-12.4504
▁terminate	-12.4513
▁prefs	-12.4516
▁'0']	-12.4518
▁Ta	-12.4534
▁cprice	-12.4535
▁210	-12.4535
01	-12.4538
▁loser	-12.454
▁fans	-12.4546
▁jjj	-12.4555
▁10))	-12.4574
times	-12.4578
▁scored	-12.4582
remainder	-12.4583
▁target	-12.4585
▁added	-12.4585
ment	-12.4592
▁minval	-12.4603
▁1.0))	-12.4604
otes	-12.4615
▁'>')	-12.4618
▁letterx	-12.4626
graph	-12.4629
▁te	-12.4637
flg	-12.4637
▁ro	-12.4638
▁prevr	-12.4645
black	-12.4647
[111];	-12.4648
require	-12.4649
checker	-12.4651
▁10000000000	-12.4659
-1)/2	-12.4663
[10][10]	-12.4664
▁cast	-12.4678
np	-12.4717
chars	-12.4729
lt	-12.4741
▁iterations	-12.4749
inner	-12.4784
est	-12.4791
▁pB	-12.4792
▁{""	-12.4814
▁comb	-12.4814
▁cntb	-12.4829
8""	-12.483
[2]++;	-12.4832
fix	-12.4833
seq	-12.4836
▁qy	-12.4844
sup	-12.4849
▁'_'	-12.4861
▁countb	-12.4869
ry	-12.4881
▁5001;	-12.4884
110	-12.4892
numbers	-12.4892
indx	-12.491
▁six	-12.4913
[-1]	-12.492
3.	-12.4926
Ans	-12.4949
▁SEGMENT	-12.4964
[7];	-12.4967
uantity	-12.5006
Star	-12.5012
--------+	-12.5018
▁DeleteIt	-12.5021
▁fristOven	-12.5021
▁thisChar	-12.5021
▁girl	-12.5021
klmnopqrstuvwxyz	-12.5021
▁invfact	-12.5021
▁starCount	-12.5021
▁Init	-12.5021
▁ttoalha	-12.5023
▁seive	-12.5024
[50][50]	-12.5025
▁numeric	-12.5029
▁toalha	-12.5036
move	-12.504
▁tiga	-12.5047
▁bucket	-12.5048
▁borrow	-12.5048
▁tConOven	-12.5048
▁besar	-12.5049
▁masha	-12.505
(180	-12.5051
▁444	-12.5051
votes	-12.5052
pq	-12.5064
▁100007	-12.5071
▁Roz	-12.5072
▁tedad	-12.5073
▁faces	-12.5073
▁banyakganjil	-12.5076
▁ganjilterkecil	-12.5076
▁buy	-12.5078
▁nextz	-12.5089
▁strArr	-12.5094
[205];	-12.5095
▁pearls	-12.5095
▁kpk	-12.5098
▁Tie	-12.5098
▁distinct	-12.5102
▁bulbs	-12.5104
'\	-12.511
▁hot	-12.5115
[2001]	-12.5115
▁strength	-12.5116
▁sheet	-12.5117
ake	-12.5121
▁128	-12.5121
▁tren	-12.5126
28	-12.5127
▁cube	-12.5129
[20]	-12.513
▁PhoneArray	-12.513
▁50)	-12.5135
▁LL	-12.5135
▁fp	-12.5137
▁goo	-12.5139
▁cyc	-12.5144
vocale	-12.5148
.#.#.#.#.#.|.|)	-12.515
wt	-12.5168
▁println	-12.5171
my	-12.5174
▁disc	-12.5175
▁viii	-12.5177
▁greate	-12.5192
▁lock	-12.5208
▁mcd	-12.5218
▁1000000001	-12.523
▁mCount	-12.523
2=0	-12.5237
▁piso	-12.5242
▁va	-12.5248
▁1000)	-12.5251
ither	-12.5253
▁57	-12.5259
▁ru	-12.528
---------	-12.5289
▁encontrado	-12.5294
anu	-12.531
▁99	-12.5312
#.#.#.|	-12.532
▁got	-12.5328
▁-1000	-12.533
▁32)	-12.5336
▁imin	-12.5352
▁nok	-12.5363
▁xor	-12.5364
[35]	-12.5366
coins	-12.537
▁fib	-12.5371
▁dic	-12.5384
boolean	-12.5388
speed	-12.5405
edges	-12.5406
▁so	-12.5412
save	-12.5414
▁gox	-12.5414
▁ce	-12.5418
buff	-12.5424
vote	-12.5425
slot	-12.5425
▁2010	-12.5426
acef	-12.5428
node	-12.5434
'6'	-12.5441
/2)	-12.5448
[505];	-12.5462
▁ry	-12.5465
▁gv	-12.5466
▁exa	-12.5478
---------------+	-12.549
▁((3	-12.5494
▁ls	-12.5499
▁lenp	-12.5505
]]--;	-12.5508
Ma	-12.5526
▁minA	-12.5533
-3]	-12.5548
words	-12.557
▁sel	-12.5573
maxm	-12.5577
dsa	-12.5586
▁non	-12.559
▁kh	-12.56
▁jmin	-12.5602
▁cw	-12.5614
▁999	-12.5636
▁wt	-12.5639
▁1007	-12.5646
)),	-12.5662
----------	-12.5669
▁1)))	-12.5679
▁'='	-12.5732
▁leave	-12.5747
."";	-12.576
▁'0'))	-12.5762
10,	-12.5766
▁mot	-12.577
▁join	-12.5778
XXL	-12.5789
▁Otherwise	-12.579
▁DashaCount	-12.579
▁supply	-12.579
▁infinity	-12.579
▁itself	-12.579
[100007]	-12.5792
▁blocked	-12.5792
▁shit	-12.5802
(':')	-12.5803
▁Long	-12.5805
▁prevI	-12.5808
▁quit	-12.5813
/2+1	-12.5815
[200][200]	-12.5815
▁colom	-12.5816
▁insect	-12.5818
▁edits	-12.5818
▁diamond	-12.5819
▁CityCode	-12.5819
▁sleepTime	-12.5819
▁consecutive	-12.582
▁numerator	-12.582
[1005][1005];	-12.5821
▁failed	-12.5822
▁MAXX	-12.5825
▁FB	-12.5826
▁1024	-12.5831
strgro	-12.5835
1],	-12.5841
▁javab	-12.5847
biggest	-12.5851
▁rub	-12.5855
▁safe	-12.5856
▁300005	-12.5857
▁packs	-12.5859
...........|	-12.586
▁MAXM	-12.5863
▁trig	-12.5866
................	-12.5866
▁modpow	-12.5867
▁itung	-12.5871
▁form	-12.5873
▁ivmind	-12.5876
▁esPrimo	-12.5877
▁modu	-12.5878
--------------+	-12.5883
▁sumodd	-12.5886
▁maxlevel	-12.5887
▁jav	-12.5896
▁ci	-12.5902
▁"""")	-12.5904
[200001];	-12.5907
+5	-12.5909
▁mayor	-12.5911
▁che	-12.592
};	-12.5921
▁prod	-12.5922
▁kount	-12.5923
6"	-12.5925
subtract	-12.5929
▁2.0)	-12.5929
]-'	-12.5931
Sum	-12.5932
▁shapes	-12.5936
▁cities	-12.5936
▁myString	-12.5937
▁lift	-12.5938
▁""()""	-12.5943
▁tu	-12.5951
itr	-12.5962
<0	-12.5963
perat	-12.5964
▁numD	-12.5972
▁Move	-12.5982
▁jmax	-12.5988
'0'	-12.5994
▁fre	-12.5997
▁amounts	-12.6002
▁cd	-12.6005
tSum	-12.6012
▁-100	-12.6015
-1][0]	-12.6025
▁boy	-12.6036
▁years	-12.6038
▁pages	-12.6042
▁MD	-12.6048
▁format	-12.6052
equal	-12.6058
▁floats	-12.6058
.0	-12.6068
dis	-12.607
▁offset	-12.6075
11	-12.6077
then	-12.6082
▁scoreb	-12.6085
xor	-12.6107
▁cry	-12.611
▁minp	-12.6121
imak	-12.6123
lcm	-12.613
possible	-12.6132
substring	-12.6134
br	-12.6154
(4);	-12.6165
▁did	-12.6166
▁rate	-12.6167
sol	-12.6172
▁maxval	-12.6178
7;	-12.619
[210]	-12.6195
command	-12.6195
▁Size	-12.6206
present	-12.6216
prog	-12.6218
cop	-12.6224
5];	-12.6232
ghi	-12.6233
▁isvowel	-12.6234
▁maxC	-12.6237
▁TIE	-12.6237
▁fg	-12.6238
TE	-12.624
gesture	-12.6244
kanan	-12.6247
chess	-12.6248
[5005];	-12.6255
▁kmax	-12.6263
▁((((	-12.6268
▁impar	-12.6268
▁bacterias	-12.6269
▁cmax	-12.6272
▁rock	-12.6272
▁55;	-12.6276
RI	-12.6277
▁1100	-12.6282
▁gmax	-12.6289
vasya	-12.6298
+1))	-12.6305
▁cons	-12.6335
ogo	-12.6335
▁mins	-12.634
tfingers	-12.6351
▁subtraction	-12.6353
▁998244353)	-12.6365
▁pal	-12.6398
]++	-12.6407
▁but	-12.6407
▁1500	-12.6408
▁Equal	-12.6422
▁faktor	-12.643
▁63	-12.6433
rfind	-12.6439
maxN	-12.645
men	-12.645
()]	-12.6463
▁amt	-12.65
[5000]	-12.6506
▁1000000000000	-12.6508
[200001]	-12.6525
[2]))	-12.6529
(7	-12.6534
▁eight	-12.6542
isTrue	-12.6546
Mar	-12.6558
shel	-12.6559
▁rc	-12.6564
[205]	-12.6577
▁wh	-12.6578
▁pack	-12.66
ting	-12.66
▁\0	-12.6614
▁nom	-12.662
▁post	-12.6623
XXS	-12.6623
▁Random	-12.6623
▁getNextGap	-12.6623
▁denominador	-12.6623
▁direcciones	-12.6623
▁lunchBreakTime	-12.6623
▁ndmny	-12.6623
▁numOfTestCases	-12.6623
▁perRowColor	-12.6623
getPossibilities	-12.6623
▁MODULO	-12.6623
▁perlas	-12.6623
▁alana	-12.6623
▁chrColor	-12.6623
▁consume	-12.6624
▁maxgro	-12.6625
▁tagua	-12.6625
▁boostIO	-12.6625
▁LCA	-12.6625
XXXS	-12.6628
▁buns	-12.6629
▁lowar	-12.6633
Flag	-12.6633
▁pict	-12.6635
▁agua	-12.6637
▁mean	-12.6637
▁""15""	-12.6642
▁pple	-12.6644
onal	-12.6646
▁empat	-12.6648
▁term	-12.6649
popcount	-12.6652
ers	-12.6655
▁maxfather	-12.6657
▁fpb	-12.6659
otherwise	-12.6661
▁recur	-12.6662
▁bshu	-12.6668
inclusive	-12.6681
▁catur	-12.6684
▁helper	-12.6685
▁hunger	-12.6685
▁getNum	-12.6685
replaced	-12.6687
▁curAns	-12.6688
▁msum	-12.6691
sinoutput	-12.6699
▁curlen	-12.6705
▁3);	-12.6708
▁Ex	-12.6716
▁hora	-12.6719
▁blocks	-12.6722
▁pick	-12.6722
urantsLunchTimes	-12.6735
▁lcp	-12.6737
▁purple	-12.674
our	-12.6741
[6	-12.6743
▁zerocnt	-12.6743
▁qiu	-12.6744
▁cake	-12.6748
▁Green	-12.6748
▁going	-12.6749
▁ratios	-12.6753
Out	-12.6754
▁finishy	-12.6757
▁problems	-12.6759
bit	-12.6765
▁finishx	-12.6769
▁vm	-12.6783
▁range	-12.6786
▁gro	-12.6791
(26	-12.6796
▁Counter	-12.6799
▁mpu	-12.6799
▁65]	-12.6807
▁exam	-12.6823
▁rs	-12.683
▁currentans	-12.6833
▁120;	-12.6841
Pos	-12.6845
cl	-12.6852
XL	-12.6852
▁1000003	-12.6858
▁use	-12.6869
ept	-12.6871
#.#.#.#.#.	-12.6872
▁Red	-12.6876
tin	-12.6876
▁sandali	-12.6879
8"")	-12.6907
▁""|.|)""	-12.6908
cp	-12.691
XS	-12.6911
('-')	-12.6913
▁""|.|""	-12.6913
▁upd	-12.6918
▁2100	-12.692
.#.#.	-12.6927
1}	-12.6934
ones	-12.6946
▁36)	-12.6949
.#.|.|)""	-12.6962
plus	-12.6974
.#.#.|.|)""	-12.698
[1000001];	-12.6988
.#.|.|""	-12.699
ast	-12.7004
▁200000)	-12.7006
.#.#.|.|""	-12.701
▁52	-12.7016
.......|""	-12.7019
.#.#.#.|.|)""	-12.7022
3]	-12.7025
▁1000010;	-12.7026
maxNum	-12.7026
.#.#.#.#.|.|)""	-12.7036
.#.#.#.|.|""	-12.705
▁seven	-12.7057
Size	-12.7065
.#.#.#.#.|.|""	-12.7066
▁100011	-12.7075
.#.#.#.#.#.|.|""	-12.708
▁pm	-12.7082
fathercnt	-12.709
force	-12.7094
▁opr	-12.7099
▁winC	-12.7107
▁19)	-12.712
Index	-12.7123
▁anses	-12.7134
-2,	-12.7139
[200000]	-12.7143
items	-12.7146
▁87	-12.7149
islower	-12.7156
INPUT	-12.7158
[10001];	-12.7161
fail	-12.7161
target	-12.7162
▁usa	-12.718
▁::	-12.7191
▁ww	-12.7202
""1/6""	-12.7206
▁dq	-12.7213
.141592653589793	-12.7227
bs	-12.7232
▁nas	-12.7251
▁inputs	-12.7254
▁Len	-12.7261
Num	-12.7263
▁21	-12.727
character	-12.7297
{}	-12.7306
Po	-12.7309
1];	-12.7318
▁Bn	-12.7332
[52]	-12.7334
numa	-12.7338
▁curl	-12.7354
▁incremen	-12.7355
#.	-12.7365
12	-12.7375
sorted	-12.7385
▁500000	-12.7387
▁dead	-12.7399
rows	-12.7442
(2);	-12.7443
▁pred	-12.7444
rend	-12.7454
▁lon	-12.7459
▁')	-12.7474
},	-12.7476
18)	-12.7487
[10005]	-12.7492
5"	-12.7498
[0]['	-12.7499
▁5))	-12.7501
▁termina	-12.7522
les	-12.7523
▁10000000000000	-12.7527
▁1000005;	-12.7528
▁extreme	-12.7532
▁leftPreSum	-12.7532
▁maxPrime	-12.7532
▁rightPreSum	-12.7532
▁trone	-12.7534
▁sufmax	-12.7535
▁""1/1""}	-12.7537
▁tail	-12.7537
XXXL	-12.7539
▁common	-12.754
limits	-12.7554
ratio	-12.7556
▁meio	-12.7558
▁CASE	-12.7564
▁inicio	-12.7564
▁tambah	-12.7564
▁reqrec	-12.7564
▁wallet	-12.7565
▁totalSec	-12.7565
▁notebooks	-12.7565
▁numerador	-12.7565
▁connected	-12.7565
▁numofelements	-12.7565
▁secretary	-12.7566
▁multiset	-12.7566
▁phnum	-12.7567
▁esto	-12.7567
(5	-12.7567
▁lastm	-12.7569
>()	-12.7569
▁prob	-12.7575
▁Ncoins	-12.7575
▁uper	-12.7583
fin	-12.7586
▁winA	-12.7593
(((	-12.7597
▁amigos	-12.7599
▁curDay	-12.7599
▁25;	-12.7601
▁blep	-12.7607
▁pkt	-12.7608
▁""6""	-12.7626
▁chore	-12.7627
▁Data	-12.7633
▁dryer	-12.7634
▁MaxN	-12.7634
▁aramic	-12.7634
▁getwin	-12.7639
seg	-12.7639
▁12]	-12.7641
▁expo	-12.7643
qua	-12.7646
[1111]	-12.7647
▁marked	-12.7648
▁30)	-12.7655
gdc	-12.7656
▁FA	-12.7656
rd	-12.7658
▁CT	-12.766
▁hap	-12.7661
▁mapper	-12.7672
▁intege	-12.7676
▁arrpos	-12.7681
▁'6')	-12.7685
2[0];	-12.769
▁ya	-12.769
ne	-12.7696
▁trunc	-12.7697
two	-12.7699
.........	-12.7707
▁datt	-12.7714
▁correct	-12.7716
▁primo	-12.7719
▁']')	-12.773
▁oddsum	-12.773
')]	-12.7737
▁outfile	-12.774
▁sumeven	-12.7741
▁ostringstream	-12.7741
▁holidays	-12.7742
▁maxWin	-12.7742
..........|	-12.7745
▁nnl	-12.775
▁free	-12.776
'][	-12.7764
▁infile	-12.7765
▁minb	-12.7771
▁kiu	-12.7773
▁eevee	-12.7774
▁gcdofarray	-12.7778
▁faktori	-12.778
▁bol	-12.7781
[201];	-12.779
▁getans	-12.7791
▁'_')	-12.7795
▁Penny	-12.7804
tri	-12.7807
impar	-12.7814
▁exc	-12.7816
▁pt	-12.7816
gu	-12.7845
▁checkodd	-12.7858
▁chr	-12.7861
▁evensum	-12.7867
-10	-12.7884
Ca	-12.7884
/100	-12.7891
+3	-12.7894
+1+	-12.7897
▁lights	-12.7908
▁ignore	-12.791
▁Maxn	-12.7922
)));	-12.7924
[200010];	-12.7931
▁ntc	-12.7962
1};	-12.797
alpha	-12.798
▁100010;	-12.7982
(2.0	-12.7985
4[	-12.7985
▁ccnt	-12.7991
▁ab	-12.8009
palindrome	-12.801
▁ofstream	-12.8014
*10	-12.8017
▁cr	-12.8023
▁delet	-12.8025
load	-12.8026
(&	-12.8036
=1,	-12.8037
'9'	-12.8048
▁ve	-12.8052
nsp	-12.8053
▁ay	-12.8054
month	-12.8055
}]	-12.8064
--])	-12.8072
▁tlen	-12.8073
'8'	-12.8078
44	-12.8082
▁contest	-12.8082
▁1000001;	-12.8096
[4][4];	-12.8104
ute	-12.8106
-1])	-12.8111
calc	-12.8114
▁10000000;	-12.8117
#.#.#.#.#.|.|)	-12.814
angle	-12.815
▁""|.|	-12.8151
dishes	-12.8153
OUTPUT	-12.8153
encontrado	-12.8156
locg	-12.8163
stones	-12.8166
ement	-12.8167
▁oc	-12.8172
▁nod	-12.8177
floors	-12.8186
▁mpow	-12.8189
ab	-12.8192
[--	-12.8199
▁2002	-12.8202
▁say	-12.8228
seed	-12.8231
NA	-12.8241
3_1	-12.8253
▁""1/1	-12.8256
(2*	-12.8277
▁|#.	-12.8281
duo	-12.8295
▁10005;	-12.83
Mina	-12.8314
▁""|.|)	-12.8318
son	-12.8326
▁mapp	-12.8333
▁lett	-12.8352
tmo	-12.8361
[1][0])	-12.8363
▁""--	-12.8365
▁ju	-12.837
▁9999999999	-12.8383
16,	-12.8399
▁boost	-12.8427
ceils	-12.8429
▁|.|	-12.8443
7(	-12.8445
▁Get	-12.8452
10);	-12.8457
colors	-12.846
Player	-12.8482
8)	-12.8484
con	-12.8487
sec	-12.8499
isited	-12.8503
▁ee	-12.8516
▁succ	-12.852
▁nnp	-12.8522
▁feet	-12.8522
▁duplicate	-12.8524
[51];	-12.8527
▁""?	-12.853
▁READ	-12.8532
▁getPr	-12.8532
▁hishab	-12.8532
SEC	-12.8532
▁cambio	-12.8532
▁collumn	-12.8532
▁difficulty	-12.8532
▁floorToGo	-12.8532
▁militros	-12.8532
▁repeticiones	-12.8532
▁spectator	-12.8532
▁conceed	-12.8532
▁radius	-12.8532
▁cross	-12.8532
6744073709551615	-12.8532
▁NWD	-12.8532
[200020];	-12.8532
▁Pedy	-12.8532
▁takeoffMin	-12.8532
▁funcion	-12.8533
▁kuda	-12.8533
▁mitad	-12.8533
▁sumador	-12.8533
▁tiempo	-12.8533
▁armor	-12.8533
▁adivb	-12.8534
del	-12.8534
▁fastMin	-12.8534
▁bdiva	-12.8534
▁fastMax	-12.8535
▁inverse	-12.8535
▁yeet	-12.8536
▁lastSum	-12.8536
[20][20]	-12.8536
▁firstSum	-12.8537
▁colums	-12.8537
▁valfin	-12.8537
▁equ	-12.854
▁cadena	-12.854
▁draw	-12.8541
▁avai	-12.8542
▁zeroes	-12.8542
▁rht	-12.8543
▁Run	-12.8545
▁prize	-12.8547
▁447	-12.8547
▁ucont	-12.8547
▁srand	-12.8547
▁indG	-12.8547
▁200020	-12.8547
▁ny	-12.8553
▁MINN	-12.8554
▁1}}	-12.8555
▁gtw	-12.8556
▁compute	-12.856
▁srt	-12.8561
▁Goals	-12.8566
▁expect	-12.8567
▁revStr	-12.8567
▁maxWord	-12.8567
▁rightMost	-12.8567
▁noOfprizes	-12.8568
▁complexity	-12.8568
▁occurrences	-12.8568
▁proc	-12.8568
▁""0123456789""	-12.8568
▁numOfteams	-12.857
▁minimal	-12.857
▁sequence	-12.8573
▁arya	-12.8574
▁duplicates	-12.8576
greater	-12.8579
▁plans	-12.8581
▁97]++;	-12.8584
▁yiti	-12.8586
(8)	-12.8592
[150]	-12.8594
▁474	-12.8598
▁indexG	-12.8603
▁Names	-12.8604
▁house	-12.8604
▁shoes	-12.8605
▁""8<""	-12.8605
▁bohlam	-12.8605
▁maxName	-12.8606
▁secnumbs	-12.8606
▁cheapest	-12.8606
▁testcases	-12.8606
▁secretaryNum	-12.8606
▁newnut	-12.8607
▁assistantTemps	-12.8607
▁wincandidate	-12.8607
▁mayu	-12.8609
#.#.#.#.|.|)	-12.8611
▁rea	-12.8612
▁control	-12.8614
▁chores	-12.8615
▁firstOn	-12.8615
▁ajout	-12.8617
▁kiri	-12.8619
▁winB	-12.862
▁absent	-12.8621
▁arena	-12.8621
▁minodd	-12.8622
▁dCount	-12.8623
▁flagee	-12.8627
he	-12.8627
▁hush	-12.8631
berOfRestaurants	-12.8632
vet	-12.8632
▁10000005	-12.8634
▁rount	-12.8639
ine	-12.8644
▁MashaCount	-12.8646
▁currgcd	-12.8646
ope	-12.8649
▁lineTime	-12.8658
▁leaves	-12.8662
▁modex	-12.8664
cto	-12.8672
>('	-12.8675
▁zuo	-12.8681
ite	-12.8685
▁cun	-12.8686
▁(9	-12.8687
▁vct	-12.8689
ncrement	-12.8693
68	-12.8693
3))	-12.8698
▁kill	-12.8698
▁incrementin	-12.8699
▁100004	-12.8703
maxmum	-12.8704
▁winm	-12.8707
])]++;	-12.8708
▁maxLen	-12.8708
▁bulb	-12.8709
▁ashu	-12.8709
▁DP	-12.8713
minx	-12.8715
▁ispalindrome	-12.872
▁gas	-12.8724
▁wen	-12.8732
▁5]	-12.8733
▁100}	-12.8736
cmn	-12.8737
-1][1]	-12.8753
▁minTime	-12.8759
▁Colours	-12.8763
▁makeChanges	-12.8765
0000000000000000	-12.8767
▁mintime	-12.8774
▁shap	-12.8775
#.#.#.#.#.|.|	-12.8778
▁'9';	-12.878
▁NP	-12.8805
▁Rajesh	-12.8805
▁checks	-12.8809
▁pending	-12.8811
▁god	-12.8811
▁Leonard	-12.8814
▁Sheldon	-12.8814
cy	-12.8818
▁1000003;	-12.8822
▁matr	-12.8824
[35][35];	-12.8829
3_2	-12.8831
lim	-12.8832
▁lev	-12.8834
▁wa	-12.8834
▁outt	-12.8837
[0]))	-12.884
req	-12.8841
▁curInd	-12.8843
1000	-12.8857
▁220)	-12.8859
pa	-12.8865
▁incr	-12.8872
cad	-12.8877
xt	-12.8904
▁teste	-12.891
▁57)	-12.8914
▁suc	-12.8917
▁99999999;	-12.892
""))	-12.8935
(97	-12.8939
▁lab	-12.8942
▁ttem	-12.895
▁wong	-12.8951
▁9999	-12.8951
▁49	-12.8952
▁maxP	-12.8961
▁gs	-12.8966
▁ycost	-12.8967
▁pA	-12.8972
▁1][3]	-12.8976
▁Index	-12.8988
▁auxl	-12.8992
▁lasth	-12.9006
▁rai	-12.9009
▁stars	-12.9023
{1,	-12.9035
▁local	-12.9048
]+1	-12.9048
1=0	-12.9049
▁-1000000000	-12.9052
▁undefined	-12.9053
▁14)	-12.9058
▁fcount	-12.9072
▁rev	-12.9082
▁require	-12.9085
▁maxer	-12.9087
▁sumtime	-12.9093
[150];	-12.9097
eat	-12.9108
9);	-12.9115
▁Dasha	-12.9132
▁sorte	-12.9137
resta	-12.9153
final	-12.9155
▁Masha	-12.9157
▁PRINT	-12.9161
myset	-12.9163
game	-12.918
three	-12.9191
sieve	-12.9203
ates	-12.9209
[200010]	-12.921
#"	-12.9227
[100009]	-12.9228
▁bexc	-12.9231
▁1000000001;	-12.9236
▁na	-12.9237
▁sa	-12.9241
matriz	-12.9245
record	-12.9249
▁bot	-12.9251
hole	-12.9252
BWBWBWBW	-12.9253
WBWBWBWB	-12.9253
nextprev	-12.9254
hotels	-12.9255
odo	-12.9256
misha	-12.9257
multiplos	-12.9259
MX	-12.926
criba	-12.9262
active	-12.9263
]=0	-12.9264
1_2	-12.9265
cakes	-12.9265
normal	-12.9266
checkodd	-12.9267
loser	-12.927
offset	-12.9272
▁sumd	-12.9272
30	-12.9274
path	-12.9279
▁(2*	-12.9282
▁tempc	-12.9282
('0')	-12.9287
cmd	-12.9293
{0,	-12.9298
nike	-12.9299
tree	-12.9304
▁lenA	-12.9305
▁""+"")	-12.9317
▁""7"";	-12.9329
7)	-12.9345
▁mbs	-12.9367
letters	-12.9368
▁vect	-12.9388
▁300000	-12.9396
ca	-12.9398
eg	-12.9403
oven	-12.9417
▁1000007	-12.9428
▁isalpha	-12.9429
▁Found	-12.9429
▁vl	-12.9431
▁kind	-12.9443
[2][0])	-12.9444
▁1010;	-12.9448
digits	-12.9457
▁3.1415926535	-12.9478
udah	-12.9491
#.#.#.#.|.|	-12.9493
▁104	-12.9499
▁103	-12.95
cei	-12.9503
▁ey	-12.951
▁Ma	-12.9517
▁nome	-12.9532
▁Ca	-12.9535
var	-12.9553
▁tmpa	-12.9555
(3);	-12.9557
eclare	-12.956
kk	-12.9564
deg	-12.9568
]].	-12.9583
un	-12.9586
▁jw	-12.9597
less	-12.9601
-(	-12.9608
▁cas	-12.9612
mmin	-12.9615
▁""4"";	-12.962
levator	-12.9622
▁7))	-12.9633
▁minCoin	-12.9634
▁Amaze	-12.9644
▁originalsquare	-12.9644
participantes	-12.9644
▁request	-12.9644
▁tujuh	-12.9644
domino	-12.9644
▁excluisve	-12.9644
▁tranSize	-12.9644
▁contCh	-12.9644
▁blank	-12.9644
▁saida	-12.9644
white	-12.9644
▁baack	-12.9644
▁Mininum	-12.9644
reversedNumber	-12.9645
▁BIT	-12.9646
▁bookgreen	-12.9647
[128]	-12.9648
▁meet	-12.9649
▁water	-12.965
[300000]	-12.9652
▁oCount	-12.9653
▁notation	-12.9653
#.#.#.#.#.#.|.|)	-12.9654
▁30010	-12.9657
[1010][1010]	-12.9658
▁token	-12.9659
roll	-12.966
▁prodm	-12.9661
▁Bstep	-12.9664
▁Bwin	-12.9667
▁Impossible	-12.9673
▁room	-12.9676
▁minsteps	-12.9678
xay	-12.9678
▁nEven	-12.968
▁falta	-12.968
▁takeoff	-12.968
▁remnut	-12.968
▁totCc	-12.968
▁isInn	-12.9681
▁aTypes	-12.9681
▁fatias	-12.9681
▁bhoric	-12.9681
▁bvoric	-12.9681
▁massiv	-12.9681
▁aPrices	-12.9681
▁numhours	-12.9681
▁niceWord	-12.9681
▁wnr	-12.9681
▁minMatch	-12.9681
▁intergers	-12.9682
▁particpant	-12.9682
▁qoutplayers	-12.9682
▁maxsuff	-12.9682
▁Result	-12.9687
lat	-12.9689
▁huiwen	-12.9689
▁boss	-12.9691
▁miax	-12.9694
.........|	-12.9704
▁alphabetical	-12.9705
▁From	-12.9707
▁qplayers	-12.9711
▁""1111111""	-12.9723
▁""0000000""	-12.9724
▁lane	-12.9725
▁prefixed	-12.9732
▁BG	-12.9733
▁esq	-12.9736
▁Minv	-12.9744
ev	-12.975
▁volume	-12.9751
cou	-12.9752
▁1000000005	-12.976
▁comando	-12.9768
▁vertical	-12.9769
▁sideMoves	-12.9769
▁toPurchase	-12.9769
▁verticalMoves	-12.977
▁menorW	-12.9771
▁elevator	-12.9774
▁nomer	-12.9778
▁menorB	-12.9778
off	-12.978
ol	-12.9783
echo	-12.9788
▁maxid	-12.9789
▁zer	-12.9796
▁wak	-12.9799
▁spect	-12.9801
100	-12.9807
▁relax	-12.981
▁bc	-12.9811
▁awal	-12.9811
▁feature	-12.9813
▁rcont	-12.9816
▁ciel	-12.982
▁stay	-12.9823
▁istringstream	-12.9826
▁tests	-12.9832
▁drinks	-12.9833
[501]	-12.9839
plen	-12.9844
▁indexT	-12.9845
▁mindiff	-12.9852
[1000000]	-12.9854
▁ttwo	-12.987
_7	-12.9871
▁gra	-12.9873
▁qx	-12.9873
▁maxsec	-12.9873
[{	-12.9874
[1002]	-12.9875
[1000010];	-12.9876
▁maxdiff	-12.9889
▁vowels	-12.9892
▁100050	-12.9895
cha	-12.9897
▁mink	-12.9906
▁scan	-12.9909
axDominoesNumber	-12.993
▁eid	-12.9931
▁tres	-12.9941
▁pascal	-12.9946
▁uni	-12.9948
▁rowCount	-12.995
▁Pi	-12.9954
▁mxpos	-12.9955
▁demy	-12.9961
[400]	-12.9979
.|.|""	-12.9982
[1100];	-12.9988
[5001]	-12.9996
cx	-13.0008
nom	-13.001
[102]	-13.001
cmx	-13.0028
▁2.0);	-13.0034
▁endpos	-13.0047
▁isFound	-13.0058
AL	-13.006
[3].	-13.0063
▁months	-13.0068
-1]-	-13.0071
▁cm	-13.0078
[300]	-13.0083
▁1000000002	-13.0093
[7	-13.0113
▁mk	-13.0115
▁away	-13.012
▁bro	-13.0128
▁15,	-13.0135
▁ye	-13.0136
▁inpp	-13.0137
▁port	-13.014
▁80;	-13.014
▁dataa	-13.0149
▁DL	-13.0169
bb	-13.0171
(6);	-13.0174
(30	-13.0176
▁',')	-13.0181
[25]	-13.0187
▁24)	-13.0188
▁sd	-13.0197
#.#.#.#.#.#.#.|	-13.0197
ame	-13.0201
[500]	-13.0209
▁minim	-13.0209
▁demx	-13.0212
pts	-13.0232
fff	-13.0236
▁lista	-13.0247
(3)	-13.0249
▁107	-13.0252
=(	-13.026
▁ssum	-13.0262
▁rts	-13.0267
▁aY	-13.0268
▁discount	-13.0271
leftnum	-13.0274
▁we	-13.0282
▁bad	-13.029
+1)*	-13.0294
[3]++;	-13.0297
▁sumw	-13.0317
▁neg	-13.0322
▁crest	-13.0329
oma	-13.0329
▁nb	-13.0336
▁fro	-13.0341
ero	-13.0369
fuel	-13.0405
▁1000000000)	-13.0413
[5]++;	-13.0413
▁"")""	-13.0415
▁80	-13.0415
▁dna	-13.0421
light	-13.0424
minus	-13.0429
540	-13.0432
)]++;	-13.0433
drink	-13.0435
comp	-13.0438
emb	-13.044
mul	-13.0441
put	-13.0446
[100100];	-13.0451
15;	-13.0462
same	-13.0466
candidate	-13.0466
'7'	-13.0471
▁-10000	-13.0476
[55][55]	-13.0477
participants	-13.048
yello	-13.0484
▁curans	-13.0491
so	-13.0493
((8	-13.0495
carry	-13.05
▁minsum	-13.0507
pasos	-13.0508
msk	-13.0509
minIncl	-13.051
maxSize	-13.051
Union	-13.0512
[1000005]	-13.0513
sandali	-13.0514
curInd	-13.0514
numver	-13.0517
eraseN	-13.0517
qmarks	-13.0518
pntr	-13.0518
piso	-13.0521
poww	-13.0522
twoPow	-13.0525
Way	-13.0526
▁fr	-13.053
Set	-13.054
text	-13.0541
vocal	-13.0545
▁1]]++;	-13.0546
maks	-13.0548
Start	-13.055
rate	-13.055
cdays	-13.056
47	-13.0571
▁Power	-13.0574
▁(-1);	-13.0582
ke	-13.0583
crew	-13.0585
▁2]))	-13.0586
memo	-13.059
▁62	-13.0607
pro	-13.0615
▁31)	-13.0636
nuts	-13.0663
▁maxb	-13.0664
▁2000000	-13.0671
▁cmx	-13.068
[4]++;	-13.0691
pot	-13.0697
▁sal	-13.0709
▁23;	-13.0711
10"	-13.0718
[3]))	-13.0725
▁""0"";	-13.0749
0],	-13.0771
▁substrings	-13.0774
Diamond	-13.0786
/4	-13.0786
▁com	-13.0791
[20000]	-13.0793
aea	-13.0799
[3	-13.0805
▁finish	-13.0805
starty	-13.0826
IS	-13.0834
Awin	-13.0838
wl	-13.084
▁interger	-13.0851
▁hah	-13.0858
▁{'	-13.0859
ocal	-13.0864
Amount	-13.0868
▁ph	-13.087
-1)*	-13.0875
▁mirror	-13.0884
ent	-13.0888
nominator	-13.0893
6789	-13.0893
▁binarycoding	-13.0894
▁goRest	-13.0894
▁numFour	-13.0894
▁plyrs	-13.0894
▁reflection	-13.0894
▁shovelNum	-13.0894
▁xaydung	-13.0894
BEER	-13.0894
BRANDY	-13.0894
FLAG	-13.0894
NumberOfContests	-13.0894
NumberOfStations	-13.0894
TheOtherDestance	-13.0894
UILA	-13.0894
banyaklemon	-13.0894
▁IleMeczy	-13.0894
▁LastCommom	-13.0894
▁NumOfFree	-13.0894
▁banyakapel	-13.0894
▁banyakpear	-13.0894
▁crearCriba	-13.0894
▁entered	-13.0894
▁hours	-13.0894
▁inPutStr	-13.0894
▁indices	-13.0894
▁logarith	-13.0894
▁myCards	-13.0894
▁originalState	-13.0894
▁screen	-13.0894
▁strunity	-13.0894
▁tabeSize	-13.0894
▁tplays	-13.0894
▁ultsel	-13.0894
▁zeroRemover	-13.0894
vaporeon	-13.0894
▁totAll	-13.0894
▁usadas	-13.0894
AMPAGNE	-13.0894
▁BFS	-13.0894
▁kvbox	-13.0894
uelta	-13.0894
▁replacement	-13.0894
▁akmal	-13.0894
▁urut	-13.0894
WINE	-13.0894
▁Ceil	-13.0894
reached	-13.0894
▁mxcommon	-13.0894
▁toUpp	-13.0894
BBBBBBB	-13.0894
▁floorNum	-13.0894
▁maxgas	-13.0894
▁Doaa	-13.0894
▁rexxx	-13.0894
▁reverseStr	-13.0894
espeon	-13.0894
▁contBa	-13.0894
▁excusive	-13.0894
▁nInputs	-13.0894
▁otherday	-13.0894
GIN	-13.0894
▁writeln	-13.0894
digitos	-13.0894
▁3432	-13.0894
▁section	-13.0894
▁simulate	-13.0895
▁wordLen	-13.0895
▁duck	-13.0895
▁putprime	-13.0896
▁ASS	-13.0897
▁prezero	-13.0897
▁another	-13.0897
▁Find	-13.0898
EY	-13.0899
▁mesto	-13.0899
[200100]	-13.0899
_8	-13.09
▁Try	-13.0901
▁774	-13.0903
▁34	-13.0904
▁Calc	-13.0905
▁flights	-13.0905
RUM	-13.0908
081	-13.0908
▁202002	-13.0908
▁747	-13.0909
▁am	-13.091
▁chrish	-13.0911
▁unos	-13.0913
Ull	-13.0915
▁744	-13.0916
▁nowl	-13.0917
▁pjg	-13.092
▁654	-13.0926
▁women	-13.0933
▁flush	-13.0934
▁isTwo	-13.0934
▁vetor	-13.0934
▁segment	-13.0934
MP	-13.0934
▁Potega	-13.0935
▁924	-13.0935
▁arrOccur	-13.0935
▁arrSorted	-13.0935
▁inputLength	-13.0935
▁nsticks	-13.0935
▁importance	-13.0935
▁isOne	-13.0936
Oven	-13.0936
▁plNumber	-13.0936
▁totalChocolate	-13.0936
▁chrisCounter	-13.0936
▁mishkaCounter	-13.0936
▁contBi	-13.0936
▁Wstep	-13.0938
▁lanes	-13.0939
2));	-13.0939
▁semi	-13.0946
▁toInt	-13.0946
▁feets	-13.0948
▁DE	-13.0948
▁nhap	-13.0953
▁movesB	-13.0953
[1][1]][1]	-13.0955
▁477	-13.0955
minTemp	-13.0959
[1][0]][1]	-13.0962
▁ax	-13.0967
gl	-13.097
▁hred	-13.0979
▁0.5;	-13.098
sizeof	-13.0981
▁nrsel	-13.0982
▁smlr	-13.0983
▁checkdouble	-13.0983
▁raices	-13.0983
▁SumOf	-13.0983
▁parity	-13.0984
▁tempSame	-13.0984
▁delta	-13.0984
▁watched	-13.0984
▁upLetter	-13.0984
▁identical	-13.0985
▁downLetter	-13.0985
▁borderPoints	-13.0985
▁jiati	-13.0985
▁asli	-13.0986
▁insertion	-13.0986
▁100.0)	-13.0986
numb	-13.0988
▁limes	-13.0989
▁-2}	-13.0992
▁streak	-13.0994
▁Waste	-13.0995
▁sizebul	-13.0998
▁util	-13.0999
▁1002	-13.1008
▁zcost	-13.1008
▁desks	-13.1019
▁Mcost	-13.1021
▁Getint	-13.1022
▁deck	-13.1025
▁wins	-13.1035
▁margesort	-13.1037
▁itm	-13.1044
▁dari	-13.1044
▁12870	-13.1044
(4,	-13.1045
▁remv	-13.105
▁1000000010	-13.1051
▁mindist	-13.1055
▁maxba	-13.1064
▁PE	-13.1065
▁TR	-13.1065
▁nslice	-13.1069
▁shela	-13.107
▁bran	-13.1074
▁dhurr	-13.1083
▁gtr	-13.1083
▁polje	-13.1084
▁Pow	-13.1084
▁guiones	-13.1085
▁getsum	-13.1089
▁2000;	-13.109
▁jwbn	-13.1092
▁alp	-13.1099
▁dm	-13.1099
▁hmn	-13.1103
zeros	-13.1105
▁dsk	-13.1108
▁secs	-13.1109
▁Win	-13.1111
()->	-13.1113
▁fasum	-13.1114
▁diry	-13.1115
▁anstemp	-13.1121
▁vol	-13.1122
128,	-13.1123
▁creq	-13.1132
▁firstPointer	-13.1138
▁weights	-13.1144
▁maxcol	-13.1145
▁LIM	-13.1149
][2	-13.1149
▁wit	-13.1159
tar	-13.1166
▁0.01	-13.1171
opt	-13.1174
ot	-13.118
maxrow	-13.1189
▁-(-	-13.1192
arra	-13.1198
▁chI	-13.1202
▁mininc	-13.1205
cordin	-13.121
dat	-13.1214
▁poz	-13.1217
▁1222	-13.1223
▁uts	-13.1223
rla	-13.1226
ric	-13.1235
bstartc	-13.1238
▁compa	-13.1239
1[0])	-13.1239
▁lastSoldier	-13.1241
▁mnth	-13.125
miniw	-13.1261
▁twoPow	-13.1276
▁Ch	-13.1284
▁rm	-13.1286
▁finala	-13.129
▁tmpB	-13.1292
▁60);	-13.1295
▁dirx	-13.1307
lag	-13.1309
▁1000004	-13.131
▁viy	-13.1315
▁math	-13.132
neo	-13.1322
▁bxb	-13.1323
gg	-13.1348
▁lenB	-13.1374
isp	-13.1387
cond	-13.1391
athome	-13.1399
[100009];	-13.1401
▁100000000000000	-13.1408
[8	-13.1413
▁ULDR	-13.1426
▁subs	-13.1458
-1))	-13.1459
▁winc	-13.1467
[505]	-13.1496
▁maxk	-13.15
use	-13.1501
▁cty	-13.1505
▁3.14159265359	-13.1513
eek	-13.152
20	-13.1525
ted	-13.153
▁3.1415926	-13.1532
▁remainders	-13.1536
▁Maxa	-13.1536
▁inindex	-13.1542
▁100))	-13.1544
▁(-	-13.1556
▁5005;	-13.1564
▁cmn	-13.1571
100010	-13.1574
bytes	-13.1587
▁3))	-13.1599
▁da	-13.1614
▁dip	-13.1617
▁Bu	-13.1629
90	-13.1631
('-');	-13.1645
▁""+"";	-13.1655
▁2000001	-13.1657
[120]	-13.1673
sed	-13.1675
8"	-13.1676
▁bx	-13.169
rea	-13.1697
lus	-13.1702
1[1]++;	-13.172
[100][100]	-13.1721
alt	-13.173
fast	-13.1731
▁99999	-13.1752
inputArr	-13.1752
thing	-13.1755
[100002];	-13.1758
▁totalc	-13.1765
[1	-13.1765
agi	-13.1778
▁nor	-13.1788
#.#.#.|.|)	-13.1796
sag	-13.1799
▁32);	-13.1815
zzzzzzzzzz	-13.1826
pb	-13.1827
▁'8'))	-13.1829
++];	-13.183
--]	-13.1835
[2][2])	-13.1839
▁bag	-13.1841
▁1)));	-13.1843
[110][110]	-13.1847
▁48620	-13.1851
nteger	-13.1855
floor	-13.1858
▁maxA	-13.1859
page	-13.186
▁tick	-13.1861
reading	-13.1868
cycle	-13.1879
200	-13.1883
▁prer	-13.1892
ra	-13.1897
▁nCount	-13.1901
rotate	-13.1911
▁UR	-13.1913
mishka	-13.1914
ABS	-13.1915
toupper	-13.1917
▁flagB	-13.1918
▁-9999999	-13.192
medal	-13.1921
computer	-13.1921
parent	-13.1922
palabra	-13.1928
fun	-13.1928
▁nx	-13.1933
lastSoldier	-13.1936
gcdofarray	-13.1938
▁aX	-13.194
pascal	-13.194
rowCount	-13.1941
eevee	-13.1945
column	-13.1946
▁compar	-13.1949
▁lal	-13.1949
ak	-13.1949
vs	-13.1951
ofstream	-13.1958
bestw	-13.1962
isvowel	-13.1964
▁ratio	-13.1972
zhi	-13.1997
qta	-13.2002
▁bst	-13.2004
[1100]	-13.2017
▁""..|	-13.2017
1"")	-13.202
fi	-13.2029
newline	-13.2029
74	-13.2031
▁remn	-13.2035
loc	-13.2037
▁es	-13.2042
][2])	-13.2061
▁hn	-13.2062
▁btot	-13.2113
▁clen	-13.2159
▁joo	-13.2163
▁aexc	-13.2179
▁vaa	-13.2184
tations	-13.2188
lef	-13.2194
..............|	-13.22
▁bnew	-13.2207
▁kw	-13.2214
▁bk	-13.2215
sing	-13.2218
▁blen	-13.2219
▁sl	-13.222
rot	-13.2224
*5	-13.2224
▁who	-13.2234
▁2222	-13.224
[20	-13.225
▁guest	-13.2268
1)/	-13.2296
razn	-13.2298
▁gift	-13.2301
▁99999999999	-13.2306
des	-13.2309
9999999999	-13.2316
▁sequential	-13.2322
AllFirendsOfMili	-13.2322
erfect	-13.2322
respuesta	-13.2322
uniqueCharacters	-13.2322
▁Solution	-13.2322
▁WandC	-13.2322
▁aumento	-13.2322
▁collect	-13.2322
▁elapsed	-13.2322
▁firstLine	-13.2322
▁fraction	-13.2322
▁leavekid	-13.2322
▁mapOfRow	-13.2322
▁minLimon	-13.2322
▁numOfInfo	-13.2322
▁numberOfMove	-13.2322
▁punkty	-13.2322
▁social	-13.2322
▁supercentral	-13.2322
▁timeOfEnding	-13.2322
▁tsocial	-13.2322
▁alphanumeric	-13.2322
▁mapOfColumn	-13.2322
memcpy	-13.2322
▁random	-13.2322
▁sumNeg	-13.2322
▁comeco	-13.2322
▁bonus	-13.2322
▁playerState	-13.2322
▁patok	-13.2323
▁belum	-13.2323
paichi	-13.2323
▁minSal	-13.2323
▁2}]	-13.2323
ockets	-13.2324
▁gear	-13.2324
[19]	-13.2325
▁kiekis	-13.2325
▁xiao	-13.2325
▁Wsp	-13.2325
AND	-13.2326
▁simmin	-13.2326
*10+	-13.233
▁minib	-13.2331
▁(;	-13.2331
▁lastodd	-13.2333
1005	-13.2335
▁lasteven	-13.2336
paila	-13.2336
▁gede	-13.234
etya	-13.2342
▁revert	-13.2344
3=	-13.2345
▁""..""	-13.2351
▁INFL	-13.2352
▁study	-13.2362
▁veces	-13.2364
▁Check	-13.2365
▁Nig	-13.2365
ive	-13.2366
=2*	-13.2366
▁divUp	-13.2368
▁deflt	-13.2368
▁mejor	-13.2368
▁kedua	-13.2368
▁0.25)	-13.2368
▁cilik	-13.2368
▁peeps	-13.2368
▁success	-13.2368
▁maxSol	-13.2368
▁Mark	-13.2368
▁selisih	-13.2368
▁wasOut	-13.2368
▁pertama	-13.2368
▁warOpen	-13.2368
▁remdiv	-13.2369
▁recursion	-13.2369
▁build	-13.2369
▁casiresp	-13.2369
▁vertikal	-13.2369
▁fastexpo	-13.2369
▁backward	-13.2369
▁noOfStudents	-13.2369
▁programming	-13.2369
▁mySum	-13.2369
▁maxTemp	-13.2372
39	-13.2373
finished	-13.2377
▁pearl	-13.238
▁svr	-13.2382
▁bord	-13.2383
▁isLucky	-13.2386
▁evenCount	-13.2387
▁stairs	-13.239
▁flot	-13.2392
▁jvb	-13.2392
▁mndist	-13.2393
▁clm	-13.2402
▁mapa	-13.2407
▁isupper	-13.2416
▁rgt	-13.2417
▁Day	-13.2422
▁mnb	-13.2424
▁triangle	-13.2425
▁nowsafe	-13.2426
▁curWorst	-13.2426
▁newsquare	-13.2427
▁-10;	-13.2428
▁maior	-13.2429
▁satuan	-13.243
▁eCount	-13.2435
▁Tot	-13.2436
▁deleta	-13.2439
swaped	-13.244
▁maximo	-13.2451
▁nextprime	-13.2454
age	-13.2458
▁band	-13.2461
▁sievesize	-13.2464
▁200000,	-13.2465
▁floating	-13.2465
▁gifts	-13.2468
▁skr	-13.2469
▁aws	-13.2471
-15	-13.2472
▁jud	-13.248
▁schedule	-13.2485
▁question	-13.2485
▁secondPointer	-13.2486
/60	-13.2486
▁mainvector	-13.2486
▁[5][5]	-13.2487
▁setIt	-13.249
▁250))	-13.249
posx	-13.2493
ri	-13.2495
tm	-13.2504
▁180-	-13.2504
▁2]);	-13.2505
▁Malvika	-13.2506
2][	-13.2506
[0][1],	-13.2506
▁sudah	-13.2508
▁inside	-13.2512
▁towel	-13.2516
LE	-13.2516
▁RC	-13.2524
▁fcounter	-13.2539
000000005	-13.2541
▁fang	-13.2541
▁oranges	-13.2542
▁shelb	-13.2543
▁tabuleiro	-13.2544
ptr	-13.2545
13579""	-13.2551
▁EASY	-13.2556
▁LC	-13.2557
▁sumC	-13.2565
cols	-13.257
_1(	-13.258
5)	-13.2598
▁printC	-13.2601
▁update	-13.2602
▁vow	-13.2602
▁lsh	-13.2603
▁combSort	-13.2604
OD	-13.2609
mol	-13.2609
[6][6];	-13.2634
[5000];	-13.2648
▁23	-13.2661
▁Akshat	-13.2665
imin	-13.2669
valido	-13.2669
▁acumx	-13.267
▁scorea	-13.2672
▁places	-13.2672
▁5.0)	-13.2674
▁nowR	-13.2674
+4	-13.2678
▁rats	-13.2683
xsum	-13.2685
▁solu	-13.269
-10;	-13.2698
1000000007	-13.2701
har	-13.2712
▁85	-13.273
▁sid	-13.2731
ctr	-13.2731
▁cntone	-13.2737
▁glo	-13.2741
▁remd	-13.275
▁bestb	-13.2757
▁Rb	-13.2769
▁cpt	-13.2771
▁Union	-13.278
▁totd	-13.2785
=4	-13.2786
▁nw	-13.2788
ntersectionsleft	-13.2789
answ	-13.2791
▁cnew	-13.2799
names	-13.2806
▁1003	-13.2807
▁BR	-13.2816
▁81	-13.2818
▁sumM	-13.2826
▁maxh	-13.2831
▁countersum	-13.2834
(5);	-13.2844
▁halfs	-13.2844
▁multiplos	-13.2849
▁concatenate	-13.2849
▁hole	-13.2851
[100004]	-13.2864
rx	-13.2864
[1]]	-13.2865
1=""	-13.2871
[6]++;	-13.2889
ww	-13.289
rec	-13.2891
7);	-13.2903
▁dishes	-13.2904
(20)	-13.2906
▁ne	-13.2915
tu	-13.2941
▁vote	-13.2943
▁5000000	-13.2947
▁';	-13.2948
Counter	-13.2953
▁ini	-13.2953
▁minix	-13.2954
ava	-13.2958
/2,	-13.296
▁them	-13.296
ncrease	-13.2971
▁cursum	-13.2972
'1'	-13.2985
6)	-13.2989
▁tota	-13.3006
remove	-13.3008
▁ctf	-13.3017
35	-13.3021
▁Bd	-13.303
elv	-13.3032
▁1)][	-13.3033
........|	-13.3047
▁absu	-13.3048
▁minnum	-13.3072
▁rt	-13.3079
su	-13.308
#.#.#.|.|	-13.3082
▁bio	-13.3093
999,	-13.3122
os	-13.3131
▁1000100	-13.3132
▁floors	-13.3134
2+	-13.3137
▁Maxm	-13.3158
▁toast	-13.3173
▁cY	-13.3186
_2(	-13.3187
.#.|.|	-13.3192
.#.#.|.|	-13.3194
[111]	-13.3195
▁3.14159265359;	-13.3208
▁glaceon	-13.3212
▁jolteon	-13.3213
.#.#.#.|.|	-13.3214
▁mina	-13.3218
.#.#.#.#.#.|.|	-13.3218
.#.#.#.#.|.|	-13.3221
▁minas	-13.3231
▁ml	-13.3234
1));	-13.3253
ey	-13.3266
▁tempn	-13.3273
▁umbreon	-13.3274
▁sylveon	-13.3279
▁gmin	-13.3281
▁ft	-13.3282
▁flareon	-13.3282
▁108	-13.3285
4);	-13.3286
#.#.#.#.#.#.|.|	-13.3294
[100010	-13.3317
16	-13.334
pe	-13.334
break	-13.336
999999999	-13.3364
=10	-13.337
▁lastans	-13.3378
▁nsp	-13.3396
▁605	-13.3398
[52];	-13.3399
▁sumend	-13.3408
che	-13.3416
▁flr	-13.343
=""	-13.3438
▁29;	-13.3444
stack	-13.3445
.#.|.|)	-13.3449
▁mmm	-13.3454
.#.#.|.|)	-13.3457
hitung	-13.3472
dom	-13.3478
('0'	-13.3482
.#.#.#.|.|)	-13.3483
clock	-13.3483
.#.#.#.#.|.|)	-13.3492
extra	-13.3501
matches	-13.3502
tobin	-13.3516
2[1]))	-13.3519
lca	-13.352
▁lt	-13.3525
cell	-13.3527
mergeSort	-13.3528
(6)	-13.3531
▁cul	-13.3532
pt	-13.3554
nCr	-13.3557
interval	-13.3568
▁100000000000	-13.3572
▁mnd	-13.3574
▁when	-13.3579
Blue	-13.3582
soldier	-13.3583
pres	-13.3585
[10001]	-13.3587
primo	-13.3594
welfare	-13.3595
=5	-13.3597
220	-13.3598
makeChanges	-13.36
[4	-13.3601
holidays	-13.3603
maxWin	-13.3603
Colours	-13.3603
[210];	-13.3604
exam	-13.3604
ymax	-13.3605
state	-13.3606
outfile	-13.3609
ostringstream	-13.3612
▁""(""	-13.3613
poz	-13.3616
primos	-13.3624
ur	-13.3625
free	-13.3625
anton	-13.3629
infile	-13.3629
most	-13.3632
qr	-13.3632
shap	-13.3634
have	-13.3635
sheets	-13.3635
▁5.0	-13.3642
48	-13.3647
,./"	-13.3648
pages	-13.3659
▁(!((	-13.3662
taken	-13.3666
ea	-13.3666
star	-13.3672
/10)	-13.3676
commands	-13.3681
Minb	-13.3683
creasing	-13.3687
▁99999999999999	-13.3694
bao	-13.3701
minP	-13.371
func	-13.3724
13579	-13.3725
[2002]	-13.3726
▁accu	-13.3741
=5*	-13.3742
▁bcount	-13.3744
▁stu	-13.3746
▁prv	-13.3749
▁fra	-13.3766
+=	-13.3768
▁minB	-13.3782
▁1.5	-13.3786
▁2000005	-13.3788
maxlen	-13.3791
▁""1/6	-13.3809
▁""2/3	-13.3817
▁""5/6	-13.3822
▁vi	-13.3823
▁""1/3	-13.3825
▁""1/2	-13.3831
10)	-13.3835
▁Ar	-13.384
sumb	-13.3849
-'0'	-13.3853
▁10000000000;	-13.3896
▁109	-13.3906
[1][0],	-13.3928
▁sai	-13.3943
▁eq	-13.3947
▁paper	-13.3964
▁truth	-13.3984
▁-10	-13.3985
▁distress	-13.3987
▁alexey	-13.3988
▁goodCell	-13.3989
▁takeStones	-13.3989
urchase	-13.3989
▁FindString	-13.3989
▁ProduceCode	-13.3989
▁execution	-13.3989
▁goContest	-13.3989
Distance	-13.3989
[2100][2100]	-13.3989
arExponentiation	-13.3989
dropout	-13.3989
haveSmallLetter	-13.3989
hayColision	-13.3989
little	-13.3989
utility	-13.3989
▁Addition	-13.3989
▁BestCoupon	-13.3989
▁EOF	-13.3989
▁Guest	-13.3989
▁IntToPattern	-13.3989
▁LastevenPos	-13.3989
▁LastoddPos	-13.3989
▁NumOfWords	-13.3989
▁OpenFile	-13.3989
▁Tonya	-13.3989
▁aguinha	-13.3989
▁available	-13.3989
▁battle	-13.3989
▁bilangan	-13.3989
▁boxees	-13.3989
▁bracket	-13.3989
▁chatSec	-13.3989
▁compote	-13.3989
▁costToPay	-13.3989
▁foobar	-13.3989
▁garrafas	-13.3989
▁getGood	-13.3989
▁getRank	-13.3989
▁hidden	-13.3989
▁hoursSpent	-13.3989
▁lEven	-13.3989
▁lemoes	-13.3989
▁limoes	-13.3989
▁numOfGames	-13.3989
▁numShapes	-13.3989
▁numType	-13.3989
▁passCode	-13.3989
▁puppet	-13.3989
▁qplays	-13.3989
▁quatro	-13.3989
▁rowsDeleted	-13.3989
▁segundos	-13.3989
▁selves	-13.3989
▁sobuj	-13.3989
▁travel	-13.3989
▁validProblems	-13.3989
▁virus	-13.3989
▁whiteAns	-13.3989
negativo	-13.3989
▁Loses	-13.3989
▁akhir	-13.3989
▁certos	-13.3989
▁encoded	-13.3989
▁floorSqrt	-13.3989
▁juntos	-13.3989
▁leafName	-13.3989
▁maxGive	-13.3989
▁myAss	-13.3989
▁totalMoves	-13.3989
▁zlicz	-13.3989
[300][300]	-13.3989
positivo	-13.3989
▁ichdama	-13.3989
▁resultadofinal	-13.3989
▁unhack	-13.3989
▁greeting	-13.3989
▁sortDes	-13.3989
coloana	-13.3989
▁MCM	-13.3989
▁ModPow	-13.3989
▁bincode	-13.3989
▁entry	-13.3989
▁origin	-13.3989
▁stuff	-13.3989
_7_4	-13.3989
▁LoL	-13.3989
▁masuk	-13.3989
▁returnAbs	-13.3989
[1024]	-13.3989
llega	-13.3989
mulate	-13.3989
▁numberofm	-13.3989
▁students	-13.3989
▁towhid	-13.3989
▁subStr	-13.3989
("":"")	-13.3989
▁myInt	-13.3989
wasBest	-13.3989
▁lOdd	-13.3989
▁capitalize	-13.3989
▁getNext	-13.3989
▁horiz	-13.3989
▁myPow	-13.3989
operation	-13.3989
[5001][5001]	-13.3989
▁firstDay	-13.3989
▁captin	-13.3989
▁esclusive	-13.3989
cifra	-13.3989
▁batas	-13.399
▁alexeyI	-13.399
▁minusSum	-13.399
▁dollar	-13.399
▁""14""	-13.399
▁xie	-13.399
rigth	-13.399
▁yolo	-13.399
▁onemore	-13.399
▁bowl	-13.399
▁colSet	-13.399
▁ncandidates	-13.399
▁goGym	-13.399
▁distressed	-13.3991
▁lowerCount	-13.3991
ffic	-13.3991
+1))/2	-13.3991
▁cityNo	-13.3991
▁rowSet	-13.3991
▁vvod	-13.3991
▁""0/1	-13.3991
▁route	-13.3991
▁ctMin	-13.3992
▁!!(	-13.3992
▁modPow	-13.3992
▁2000010	-13.3993
▁quant	-13.3993
▁presentes	-13.3994
2[1000009]	-13.3994
mirrorup	-13.3994
▁maxWaste	-13.3995
[5002]	-13.3995
▁ctMax	-13.3995
encont	-13.3996
▁bottle	-13.3996
▁generat	-13.3996
mirrorright	-13.3996
▁listprime	-13.3997
▁indE	-13.3997
▁findstep	-13.3997
▁Checking	-13.3998
▁gcdNum	-13.3999
▁Ile	-13.4
zzzzzzzzzzzz	-13.4001
▁kids	-13.4001
▁twoPower	-13.4002
▁tira	-13.4003
▁lj	-13.4003
▁whole	-13.4004
(10.0	-13.4004
▁modinv	-13.4005
bestIndex	-13.4005
limake	-13.4005
▁getson	-13.4005
▁fastmod	-13.4006
camp	-13.4006
[109]	-13.4008
▁200009	-13.4011
slices	-13.4012
▁finder	-13.4014
▁ggg	-13.4014
waiter	-13.4015
▁parameters	-13.4017
▁DY	-13.4018
▁obj	-13.4019
▁wtf	-13.4022
▁prazn	-13.4024
me	-13.4032
▁busy	-13.4032
▁firstone	-13.4036
[5]);	-13.4038
▁sumclock	-13.4038
▁nhack	-13.404
▁bitch	-13.4041
▁ambos	-13.4041
▁cOdd	-13.4041
▁Toats	-13.4041
▁isRoot	-13.4042
▁shuwei	-13.4042
▁shuzi	-13.4042
▁numOfNet	-13.4042
▁maxSwaps	-13.4042
▁unfortunate	-13.4043
▁minPockets	-13.4043
▁""00""	-13.4043
+1][0]	-13.4044
asc	-13.4045
▁Last	-13.4045
[1050];	-13.4046
▁mnind	-13.4049
[3005]	-13.405
▁spare	-13.405
▁cntc	-13.405
▁isThere	-13.4052
▁(99999	-13.4052
mmax	-13.4059
▁(9999	-13.4061
0);	-13.4061
▁Sr	-13.4063
▁bic	-13.4063
▁1440	-13.4063
▁haha	-13.4065
▁Mtime	-13.4067
▁30005	-13.4067
▁highnum	-13.4072
▁flower	-13.4072
atoi	-13.4079
▁tipo	-13.4084
▁ncasos	-13.4084
▁putit	-13.4087
selectionSorting	-13.4093
▁fB	-13.4095
▁signal	-13.4095
▁dash	-13.41
constant	-13.41
▁divN	-13.4103
nome	-13.4106
▁extrema	-13.411
▁vashya	-13.411
▁digui	-13.411
▁noldbach	-13.411
▁isluck	-13.4111
▁refrence	-13.4111
▁arreglo	-13.4111
▁coupons	-13.4111
▁(99999999	-13.4111
▁zhu	-13.4111
▁antisimon	-13.4111
▁dependency	-13.4111
▁allAreSame	-13.4112
▁downloaded	-13.4112
▁isPrimeRoot	-13.4112
▁maxSections	-13.4112
▁isNoldPrime	-13.4112
▁cardOnTable	-13.4112
▁CountOfMoney	-13.4112
▁isPalindrome	-13.4112
▁CalculatePrimes	-13.4112
▁uion	-13.4113
▁appr	-13.4113
▁""\0""	-13.4119
▁clr	-13.412
▁curMin	-13.4121
▁strng	-13.4124
▁Orange	-13.4128
)(1	-13.4128
▁zzz	-13.4129
▁(9999999	-13.413
▁links	-13.4131
▁simon	-13.4133
▁minstep	-13.4135
▁(999	-13.4138
▁childs	-13.4146
▁username	-13.4155
▁listsize	-13.4155
▁minsq	-13.4159
▁upset	-13.416
▁Tim	-13.4161
▁DX	-13.4161
▁lste	-13.4162
[3000];	-13.4167
▁mystr	-13.4167
▁self	-13.4169
▁100);	-13.417
▁curY	-13.4171
▁vert	-13.4175
[31]	-13.4178
▁(99	-13.4187
▁cei	-13.4188
▁tran	-13.4198
▁contM	-13.4198
▁casos	-13.4199
▁nbulb	-13.4207
▁(999999	-13.4208
▁'=')	-13.4212
▁(999999999	-13.4215
▁pres	-13.4216
[250]	-13.4217
▁codes	-13.4217
▁doll	-13.4221
▁curX	-13.4232
fim	-13.4243
▁nOdd	-13.4248
(3*	-13.425
▁candies	-13.4252
▁cz	-13.4254
▁0.5);	-13.4259
[301]	-13.4259
▁bpb	-13.426
*2-	-13.4277
▁cX	-13.4279
▁zong	-13.4281
▁integ	-13.4281
▁tsd	-13.4281
▁5050	-13.4282
▁scissors	-13.4286
▁liz	-13.4287
▁bark	-13.4289
▁verif	-13.4297
▁cntup	-13.4298
▁nph	-13.4302
▁ssss	-13.4315
50	-13.4319
▁sho	-13.4319
If	-13.4324
▁gover	-13.4325
▁miss	-13.4329
arch	-13.4335
('.'	-13.4337
▁95	-13.4339
▁colume	-13.4342
▁parta	-13.4342
▁Dis	-13.4342
ecrement	-13.4352
▁dish	-13.4356
#	-13.4361
▁tplayers	-13.4361
▁TB	-13.4365
▁1000000)	-13.4366
▁dasha	-13.4375
▁dots	-13.4381
▁si	-13.4385
stick	-13.4391
▁ppp	-13.4391
mo	-13.4391
▁curs	-13.4392
▁Mid	-13.4393
▁sifr	-13.4394
[501][501];	-13.4396
▁Go	-13.4397
▁turned	-13.4398
▁indO	-13.4403
▁samex	-13.4408
▁ansh	-13.4424
▁301	-13.4425
▁coA	-13.4429
▁reversed	-13.4432
686]	-13.4439
[2002];	-13.4451
nary	-13.4457
8];	-13.447
▁writes	-13.4486
▁users	-13.4487
▁ap	-13.4491
▁Is	-13.4496
▁wei	-13.4497
▁disy	-13.45
▁phi	-13.4508
▁firstw	-13.4513
cun	-13.4514
▁1050	-13.4519
sumA	-13.4523
▁'/')	-13.4526
▁ptot	-13.4537
▁pasos	-13.4539
clo	-13.4543
▁Str	-13.4551
▁lmax	-13.4555
li	-13.4556
▁cer	-13.4561
/7	-13.4566
▁59	-13.457
▁declar	-13.4571
▁28)	-13.4586
▁(;;	-13.4587
▁istrue	-13.4588
▁270	-13.4626
[3][	-13.4627
▁1000006;	-13.463
▁TA	-13.4642
oc	-13.4653
-1)/	-13.4659
▁ra	-13.4661
▁ceils	-13.4664
▁En	-13.4681
▁Do	-13.4681
▁printsp	-13.4682
[4][2	-13.4717
▁Ciel	-13.4726
▁mceil	-13.4736
▁llin	-13.4759
lb	-13.4759
▁isvalid	-13.4759
▁pmin	-13.4765
bt	-13.4772
Cb	-13.4775
ag	-13.4778
2],	-13.4779
rep	-13.4784
-2)	-13.479
▁swaps	-13.4805
▁cases	-13.4809
▁qsort	-13.4813
▁pc	-13.4814
▁74	-13.4815
cz	-13.4817
tNum	-13.4818
slow	-13.4822
▁TE	-13.4827
ny	-13.4833
▁bui	-13.4842
▁99)	-13.4849
▁++(	-13.485
▁2.0;	-13.4856
[100002]	-13.4866
dib	-13.4869
▁hc	-13.4872
▁great	-13.4877
▁bef	-13.4881
▁stab	-13.49
▁nn	-13.4907
▁msh	-13.4911
]]]]	-13.4924
00005];	-13.4935
17	-13.4935
▁aes	-13.4941
▁77	-13.4964
▁""-"";	-13.4971
doi	-13.4972
-5	-13.4979
▁2*(	-13.4984
▁58	-13.4992
alre	-13.4994
▁252	-13.5012
initialize	-13.5028
pl	-13.5037
▁countr	-13.5049
▁maxindex	-13.5067
++""	-13.5076
))))	-13.5076
▁jmn	-13.5085
▁62;	-13.5087
▁Soul	-13.5089
▁distr	-13.5094
▁auxr	-13.5099
▁idxb	-13.5102
▁Space	-13.5133
rom	-13.5136
▁leafeon	-13.514
ro	-13.5141
','	-13.515
cnta	-13.5168
od	-13.5169
▁1000002	-13.5171
▁Reality	-13.5187
▁kmin	-13.521
▁""-"")	-13.5216
1])	-13.5219
sumthing	-13.5224
▁mpp	-13.5229
▁tmpA	-13.5231
disC	-13.5231
▁squares	-13.5237
▁SS	-13.5253
3005	-13.5259
printC	-13.5261
▁notes	-13.5268
▁islower	-13.5268
▁cum	-13.5273
........	-13.5273
order	-13.5278
▁flas	-13.5282
▁2500	-13.5291
▁ansB	-13.5299
▁pcount	-13.5303
1][1],	-13.5306
▁300;	-13.5313
bulb	-13.5323
▁resL	-13.533
.|.|	-13.5337
▁sig	-13.5344
ref	-13.5357
rank	-13.5359
▁numL	-13.5367
▁-1000000007	-13.5371
isBest	-13.5373
sig	-13.5397
*3	-13.5425
▁killed	-13.5436
dub	-13.5449
priority	-13.545
dia	-13.5457
ate	-13.5468
lena	-13.5476
spec	-13.5478
round	-13.5481
Move	-13.5485
▁gm	-13.5494
terkecil	-13.5502
factor	-13.5503
ql	-13.5517
▁bY	-13.552
stone	-13.5527
cos	-13.5528
large	-13.5536
[20200	-13.5537
nLim	-13.554
▁pu	-13.5541
▁slt	-13.5544
password	-13.5548
nPos	-13.555
hasil	-13.5552
sheet	-13.5556
acum	-13.5557
[5001];	-13.5557
contiguous	-13.5562
2]++;	-13.5562
+1])	-13.557
biaoji	-13.557
▁nap	-13.5576
▁ifprime	-13.5579
pole	-13.5584
xmax	-13.5585
deque	-13.5589
needPrezent	-13.5589
Yellow	-13.559
before	-13.5592
height	-13.5593
ove	-13.5593
myString	-13.5594
firstPointer	-13.5595
combSort	-13.5596
cities	-13.5596
stud	-13.5597
shapes	-13.5597
update	-13.5599
dasha	-13.5604
like	-13.5605
[31];	-13.5606
128	-13.5607
mima	-13.5608
maxsec	-13.561
seen	-13.561
only	-13.5613
bul	-13.5616
menor	-13.5619
tempm	-13.5621
trunc	-13.5622
▁ansf	-13.5623
strings	-13.5628
lights	-13.563
xorr	-13.563
LIM	-13.5635
▁Mind	-13.5636
▁Cal	-13.5643
▁cval	-13.5644
▁2)]	-13.5645
cot	-13.5645
▁2)))	-13.5647
imax	-13.565
10],	-13.565
maxd	-13.566
▁100000)	-13.5666
frest	-13.567
▁reus	-13.5687
[10010]	-13.569
▁tempsum	-13.5695
2<=	-13.5702
maxval	-13.5707
▁3.141592	-13.5709
errl	-13.5709
▁see	-13.571
)/10	-13.5721
nama	-13.5727
▁,0,	-13.5729
▁333	-13.5732
[1][1]]	-13.5734
▁scores	-13.5737
00005	-13.5741
▁cnta	-13.5743
lett	-13.5743
(100	-13.5745
md	-13.5778
MAXT	-13.5782
▁2001,	-13.5808
."	-13.5844
ion	-13.5852
sta	-13.5857
[2*	-13.5863
fg	-13.5873
▁won	-13.5873
stat	-13.5877
2147483647;	-13.588
▁lb	-13.5884
▁100000000;	-13.5888
bk	-13.59
taka	-13.5903
[1005][1005]	-13.5908
tuu	-13.5925
ce	-13.5927
""""	-13.5938
▁'1'))	-13.5941
Statement	-13.5944
inc	-13.5946
▁resul	-13.5948
▁20);	-13.5958
di	-13.5963
nam	-13.5963
[1002];	-13.5964
reopen	-13.5972
▁bac	-13.5978
de	-13.5985
▁quick	-13.5988
Common	-13.5989
▁StaionsDistance	-13.5989
FFFFFFF	-13.5989
totalLimon	-13.5989
totalMili	-13.5989
▁MODPRIMA	-13.5989
▁NegOO	-13.5989
▁Oddz	-13.5989
▁bByGame	-13.5989
▁cEven	-13.5989
▁diffuclty	-13.5989
▁reallyans	-13.5989
▁timeWalk	-13.5989
▁totalSalt	-13.5989
▁calculati	-13.5989
▁smjeroviX	-13.5989
▁smjeroviY	-13.5989
▁bnyak	-13.5989
[365]	-13.5989
▁upward	-13.5989
▁precompute	-13.5989
▁again	-13.5989
▁mulMod	-13.5989
[10000005];	-13.5989
▁inclusve	-13.5989
▁mys	-13.599
▁Boolean	-13.599
[150][150]	-13.599
▁abort	-13.5991
unitTime	-13.5991
▁hold	-13.5991
▁minGas	-13.5992
testCnt	-13.5994
▁10.0	-13.5994
▁stolen	-13.5997
▁angel	-13.6006
nro	-13.6018
Gdrink	-13.6024
▁passed	-13.6027
xb	-13.6036
/(	-13.6037
▁judg	-13.604
-2*	-13.6041
▁365	-13.6046
(2)))	-13.6047
▁kiek	-13.6048
▁linie	-13.6048
▁Prv	-13.6049
▁Inf	-13.6049
▁Cost	-13.6049
▁""11111""	-13.605
▁death	-13.605
▁trash	-13.605
▁haSh	-13.605
▁yeah	-13.6051
▁wynw	-13.6051
▁TOOG	-13.6051
▁repeat	-13.6051
▁resultado	-13.6051
▁handels	-13.6051
▁Team	-13.6051
▁kpyto	-13.6052
▁curAng	-13.6052
▁reshala	-13.6052
▁yippee	-13.6052
▁kachok	-13.6052
▁totDist	-13.6052
▁camino	-13.6052
▁tempChar	-13.6052
▁numMedal	-13.6052
▁availabe	-13.6052
▁tSinOven	-13.6052
▁Answers	-13.6052
▁matrex	-13.6052
▁tempRange	-13.6052
▁isLesson	-13.6052
▁haveNum	-13.6052
▁freefuel	-13.6053
▁Petya	-13.6053
▁smallAns	-13.6053
▁spicifier	-13.6053
▁1000.00	-13.6053
▁noOfOranges	-13.6053
▁charArray	-13.6053
▁banknotes	-13.6053
▁cycleSort	-13.6053
▁numberOfLucky	-13.6053
▁isSubstring	-13.6053
▁isComposite	-13.6053
▁selection	-13.6053
▁numberOfInputs	-13.6053
▁triangleNumber	-13.6053
▁haveBigLetter	-13.6053
▁shouldContinue	-13.6053
▁angleofpolygon	-13.6053
▁checkDegenerate	-13.6054
▁frap	-13.6054
▁Players	-13.6055
▁mltotal	-13.6055
▁upperCount	-13.6055
▁flip	-13.6056
▁65]++;	-13.6056
suma	-13.6057
/2)*	-13.6058
▁deep	-13.6059
▁kString	-13.606
▁200007	-13.606
▁fourcount	-13.606
▁toutt	-13.6064
▁144)	-13.6066
(""4	-13.6067
▁vict	-13.6069
[1003]	-13.6069
suffix	-13.6071
▁poped	-13.6073
▁mixx	-13.6077
▁Rem	-13.6085
▁quantity	-13.6086
▁4*(	-13.6088
▁newk	-13.6092
elements	-13.6094
{};	-13.6097
pal	-13.6098
▁kata	-13.6101
▁rope	-13.6102
[])	-13.6106
[0][2])	-13.6109
▁dick	-13.6113
▁hack	-13.6114
▁pct	-13.6115
▁tempCount	-13.6115
▁just	-13.6129
▁""144""	-13.6133
▁hutch	-13.6135
▁source	-13.6137
▁choice	-13.6137
▁tstudy	-13.6138
hile	-13.6139
▁arrB	-13.6143
▁uno	-13.6144
▁our	-13.6148
=100005	-13.6149
▁chocs	-13.6152
▁levl	-13.6159
acc	-13.6166
▁0.5)	-13.6168
▁(-1))	-13.6176
▁tuu	-13.6178
▁Temp	-13.6179
▁111111	-13.6187
tdiff	-13.6192
scorea	-13.6193
(210)	-13.6194
▁actions	-13.62
▁minr	-13.6201
qq	-13.6206
[7])	-13.6206
resp	-13.6207
▁tempb	-13.621
▁peso	-13.6213
▁180.0	-13.6219
...	-13.622
▁40;	-13.6221
▁suit	-13.6223
▁evaluate	-13.6224
[100000][2]	-13.6225
▁employee	-13.6225
▁resolver	-13.6225
▁setTree	-13.6225
]-'0'))	-13.6225
▁fastExp	-13.6225
▁qingkuang	-13.6226
▁zeroNum	-13.6227
▁hist	-13.6228
17;	-13.6242
▁exclusi	-13.6246
▁highid	-13.6249
*4	-13.6252
▁IMPOSSIBLE	-13.6255
[200009];	-13.6259
▁mxl	-13.626
nGas	-13.6261
▁coB	-13.6268
▁nul	-13.6276
▁3010	-13.6286
▁olds	-13.6291
▁lar	-13.6304
▁hand	-13.6307
▁allB	-13.631
say	-13.6321
▁'{')	-13.6322
.|.|)""	-13.6324
▁2222;	-13.6332
]='	-13.6334
▁ary	-13.634
▁sor	-13.6341
fo	-13.6342
▁rots	-13.6342
▁decrementi	-13.6343
▁rowe	-13.6348
▁vpoints	-13.6364
▁999999999;	-13.6369
▁samey	-13.6373
!=	-13.6378
▁5010	-13.6387
=""0""	-13.639
▁like	-13.6398
▁minj	-13.6404
▁needPrezent	-13.6405
***	-13.6408
▁zs	-13.6409
▁modi	-13.641
ere	-13.6418
▁mns	-13.642
▁strr	-13.6426
▁'0']++;	-13.6465
▁999999;	-13.6465
[111111];	-13.6482
cluding	-13.6491
▁unin	-13.6494
[30010];	-13.6498
▁terkecil	-13.65
▁teams	-13.6502
▁medal	-13.6505
▁allA	-13.6507
may	-13.6515
▁vii	-13.6522
2[0]])	-13.6558
(100001	-13.6571
ica	-13.6575
▁100500	-13.6598
▁96)	-13.6604
nx	-13.6612
OW	-13.6617
[1007]	-13.6627
▁maxim	-13.6631
[103];	-13.6637
▁exists	-13.6646
▁numW	-13.6655
strr	-13.6662
▁601	-13.6663
▁99999;	-13.6668
22	-13.6671
ES	-13.6682
▁pan	-13.6691
lie	-13.6692
50];	-13.6694
▁yello	-13.6702
-"";	-13.6708
▁BS	-13.6711
sumx	-13.6714
▁ranki	-13.6718
▁1]])	-13.6719
▁56	-13.6728
][3];	-13.6731
#.#.|.|)""	-13.6731
[3][2]	-13.6741
▁sumtp	-13.6754
1[2]	-13.676
▁tml	-13.6761
▁WBWBWBWB	-13.6769
▁BWBWBWBW	-13.6769
▁-2	-13.677
▁xy	-13.6773
[100100]	-13.6778
[11][11]	-13.6781
▁nextprev	-13.6785
▁powm	-13.6786
▁17)	-13.6798
.......|	-13.6828
▁vB	-13.683
▁nvotes	-13.6839
▁sumdn	-13.6855
bl	-13.6872
000000	-13.6877
▁44	-13.6878
eger	-13.6892
▁gol	-13.6895
▁newS	-13.6898
2=""	-13.6899
▁(--	-13.69
▁125	-13.6902
▁mpoints	-13.6904
1]++;	-13.6905
▁minD	-13.6909
▁UL	-13.6937
cntr	-13.6957
cal	-13.6979
...............|	-13.6983
▁sg	-13.6983
bule	-13.6989
▁ti	-13.7005
▁maxj	-13.7008
▁(0	-13.7026
ize	-13.7028
▁100003	-13.7031
[17]	-13.7046
!"")	-13.7046
▁stc	-13.7051
/2]	-13.7065
▁acef	-13.7072
▁'0')))	-13.7103
▁mgcd	-13.7129
[2][1]=	-13.7131
+7	-13.7134
▁statements	-13.7135
Se	-13.7143
▁mnj	-13.7143
▁-2;	-13.7154
▁uu	-13.7161
▁ou	-13.7173
▁his	-13.7175
▁bX	-13.7188
ep	-13.7192
▁cstart	-13.7207
bitwise	-13.7212
▁wb	-13.7213
+(	-13.7228
[2010];	-13.723
▁taka	-13.7232
▁removed	-13.7233
[1][0]]	-13.7241
IT	-13.7243
▁4]	-13.7247
10]	-13.7248
(0.0)	-13.7258
▁atan	-13.726
_2;	-13.7265
▁chal	-13.7272
exit	-13.7278
▁30001	-13.7288
▁minstring	-13.7301
▁DR	-13.7308
)10	-13.7311
cases	-13.7312
unt	-13.7318
▁ky	-13.7323
▁dar	-13.7328
▁mz	-13.734
▁ri	-13.7343
▁lf	-13.7352
--"")	-13.7364
[4]);	-13.7364
Mod	-13.7368
-'	-13.7371
lens	-13.7381
▁retur	-13.7391
▁ooi	-13.74
▁rd	-13.7414
▁firstb	-13.7435
crement	-13.7457
[1000001]	-13.7467
▁cos	-13.7487
{0};	-13.7499
▁TOWARDS	-13.7522
!"	-13.7526
▁primesize	-13.7535
▁=0,	-13.7539
▁epi	-13.7558
io	-13.7567
▁12,	-13.7583
▁""3	-13.7595
idxa	-13.761
])))	-13.7611
▁10001;	-13.7622
▁wee	-13.7629
sq	-13.7636
▁hd	-13.7647
?	-13.7648
▁1.0);	-13.7653
uts	-13.7671
▁70	-13.7681
▁disx	-13.7682
[2000]	-13.7685
[0	-13.7689
▁tes	-13.7696
▁uc	-13.7699
der	-13.7706
--""	-13.7729
gum	-13.7735
11111"	-13.7748
>=0	-13.7752
[10	-13.7755
Str	-13.7758
▁nu	-13.7764
▁divid	-13.7765
(10000	-13.7776
7"	-13.7781
3],	-13.7787
▁1023	-13.7794
▁""8	-13.7803
chk	-13.786
ttl	-13.7865
sprime	-13.7866
pd	-13.7867
▁nan	-13.7877
▁[101][101]	-13.7884
bo	-13.7889
▁kle	-13.7901
▁incrementi	-13.7917
sion	-13.7929
year	-13.7934
▁wi	-13.7947
write	-13.796
▁""-1"")	-13.796
▁kg	-13.7968
mult	-13.797
/3	-13.7975
[2]);	-13.7978
divisor	-13.7992
distanc	-13.7996
hen	-13.8
buf	-13.8004
remaining	-13.8008
weight	-13.8014
perm	-13.8021
gover	-13.8021
static	-13.8029
bills	-13.8034
merge	-13.8034
sible	-13.8035
270	-13.8044
Pic	-13.8048
0))	-13.8049
biao	-13.8054
chore	-13.8055
smallest	-13.8065
0.0	-13.8067
Alex	-13.8067
binary	-13.8068
enemy	-13.807
posibles	-13.8078
busca	-13.8078
huruf	-13.8078
PhoneArray	-13.8081
Chess	-13.8083
finishy	-13.8088
bark	-13.8088
finishx	-13.8088
coty	-13.8089
bisa	-13.809
candies	-13.809
mininc	-13.809
Green	-13.8091
▁2501	-13.8091
cube	-13.8091
tabuleiro	-13.8091
feature	-13.8092
guiones	-13.8093
mayor	-13.8093
problems	-13.8095
polje	-13.8095
dhurr	-13.8095
mapper	-13.8097
relax	-13.8098
awal	-13.8099
paramet	-13.81
boox	-13.81
nOdd	-13.8101
zuo	-13.8102
tb	-13.8103
prim	-13.8104
maxLen	-13.8104
pwr	-13.8112
mole	-13.8116
declar	-13.8118
bob	-13.8119
▁8);	-13.8122
isFound	-13.8124
Let	-13.8125
replace	-13.8127
mask	-13.8132
LunchTimes	-13.8133
isvalid	-13.8135
prod	-13.8135
acumx	-13.8141
medals	-13.8144
isit	-13.8144
▁9999999;	-13.8145
▁leg	-13.8145
shelb	-13.8148
*-1	-13.8149
games	-13.8155
demy	-13.816
mnth	-13.816
1009	-13.8165
who	-13.8186
/2"	-13.8188
▁inst	-13.8189
sisa	-13.8192
Cmp	-13.8199
Mid	-13.82
was	-13.82
minval	-13.8203
discounts	-13.8207
▁9999999999;	-13.8216
clusive	-13.8217
lphabet	-13.8223
lane	-13.8231
vest	-13.8238
▁(24	-13.8245
▁2.00	-13.8248
1""	-13.8254
2005][2005];	-13.826
tim	-13.826
chr	-13.8267
sym	-13.8268
demx	-13.8269
1[3]	-13.8273
)(8	-13.8274
ratios	-13.8295
DP	-13.8306
▁6][	-13.8318
maxindex	-13.8326
Maxm	-13.8331
▁115	-13.8338
fir	-13.8338
▁alphabetic	-13.8342
▁1200	-13.8352
hangx	-13.8353
▁131	-13.8361
(3-	-13.8368
hela	-13.8394
subs	-13.8398
▁""1"")	-13.8416
▁2.000	-13.8417
4]	-13.8419
done	-13.8445
▁parameter	-13.8445
▁friend	-13.8447
▁stair	-13.845
.000)	-13.8452
▁naj	-13.8456
lev	-13.8456
uiwen	-13.8479
▁bt	-13.8483
▁ost	-13.8488
(2002)	-13.8488
▁binarySearch	-13.8489
▁cookie	-13.8489
▁nextBYear	-13.8489
▁countSubseq	-13.8489
▁rearorder	-13.8489
2384626433832795	-13.8489
524289	-13.8489
UDGE	-13.8489
[1440]	-13.8489
[30005][25]	-13.8489
[32][32]	-13.8489
codechef	-13.8489
ribbon	-13.8489
significant	-13.8489
toastFromBottle	-13.8489
▁888888	-13.8489
▁AppEnd	-13.8489
▁DisplayBoard	-13.8489
▁Euler	-13.8489
▁Genawy	-13.8489
▁Numberofstones	-13.8489
▁Sieve	-13.8489
▁abajo	-13.8489
▁customerTime	-13.8489
▁encender	-13.8489
▁euclides	-13.8489
▁getSoroban	-13.8489
▁goEither	-13.8489
▁imprimir	-13.8489
▁intToString	-13.8489
▁inzlition	-13.8489
▁isMNextPrime	-13.8489
▁isPowerOfTwo	-13.8489
▁lexMaxSubseq	-13.8489
▁lifestyle	-13.8489
▁makeAString	-13.8489
▁middlePoint	-13.8489
▁minCoinsToWin	-13.8489
▁missingTemps	-13.8489
▁modInverse	-13.8489
▁numOfLight	-13.8489
▁penalty	-13.8489
▁pichone	-13.8489
▁primeFactors	-13.8489
▁removals	-13.8489
▁solveTest	-13.8489
▁somebodytrue	-13.8489
▁sumaEnOtraBase	-13.8489
▁symbol	-13.8489
▁toastDueToSalt	-13.8489
▁whitespace	-13.8489
alidity	-13.8489
subsequence	-13.8489
▁GetNext	-13.8489
▁esPalindromo	-13.8489
▁fillSides	-13.8489
▁isSubSequence	-13.8489
▁salida	-13.8489
▁INFTY	-13.8489
▁mostrar	-13.8489
▁stderr	-13.8489
▁tempName	-13.8489
▁getNumbers	-13.8489
▁300300	-13.8489
▁doesIt	-13.8489
▁maxsecction	-13.8489
▁getsolved	-13.8489
▁termination	-13.8489
▁fstexp	-13.8489
▁Seive	-13.8489
▁getPrime	-13.8489
isFace	-13.8489
▁binPow	-13.8489
▁preprocess	-13.8489
▁getDis	-13.8489
▁Divs	-13.8489
▁prifac	-13.8489
[200025]	-13.8489
▁getResult	-13.8489
OUT	-13.8489
▁euqal	-13.8489
▁Work	-13.8489
▁isRow	-13.8489
▁prework	-13.8489
▁toLow	-13.8489
epsilon	-13.8489
INP	-13.8489
magical	-13.8489
▁CountNum	-13.8489
▁resetArr	-13.8489
ameter	-13.8489
▁myMap	-13.849
▁worth	-13.849
factores	-13.849
▁RPS	-13.849
tuple	-13.849
(1.5)	-13.849
▁reversestack	-13.849
▁freac	-13.849
+2)*(	-13.849
popcountll	-13.849
▁mdpower	-13.849
▁snack	-13.849
▁1000000007)*(	-13.849
▁recurse	-13.849
Null	-13.849
enough	-13.849
▁doIt	-13.8491
ABC	-13.8491
▁isOdd	-13.8491
▁preorder	-13.8491
▁writing	-13.8491
▁precomp	-13.8492
▁512}	-13.8492
*60+	-13.8492
▁precalc	-13.8492
[120][120]	-13.8492
Roll	-13.8492
▁upperbound	-13.8493
▁2000000009	-13.8493
▁numpacks	-13.8493
[100006]	-13.8493
▁minjumps	-13.8495
+1)/2)-	-13.8495
▁tiles	-13.8495
▁mygets	-13.8495
tables	-13.8496
▁256}	-13.8496
▁getlist	-13.8496
▁har	-13.8497
▁parse	-13.8497
▁113}	-13.8497
▁raiz	-13.8497
5+5	-13.8497
-2)*	-13.8498
▁bshead	-13.8498
▁printString	-13.8499
[3][201]	-13.8499
▁alter	-13.85
[30001]	-13.85
▁1000+10	-13.8502
▁gems	-13.8502
Oct	-13.8502
▁putL	-13.8504
,./""}	-13.8504
puter	-13.8505
▁cclockwise	-13.8506
▁cheak	-13.8506
wise	-13.8507
▁units	-13.8507
▁mypow	-13.8508
▁putR	-13.851
▁cheng	-13.8511
▁changeIndex	-13.8511
999];	-13.8512
▁exlusive	-13.8514
▁-11111111	-13.8514
▁200500	-13.8515
brr	-13.8517
▁hcf	-13.8517
▁createMap	-13.852
▁rotatez	-13.8523
▁oldstr	-13.8524
[30][30]	-13.8524
▁reala	-13.8524
▁powermod	-13.8526
▁baad	-13.8528
tenth	-13.8528
4409	-13.8529
▁increa	-13.853
▁cena	-13.853
=1000000009	-13.853
▁newpage	-13.8531
▁spe	-13.8532
olute	-13.8533
illion	-13.8533
+2*	-13.8533
[101][11]	-13.8534
[30005]	-13.8535
LOG	-13.8536
/1000	-13.8536
)('	-13.8536
▁frq	-13.8536
minw	-13.8541
▁0}}	-13.8541
▁angka	-13.8542
▁flase	-13.8542
▁rAmount	-13.8543
)*8	-13.8545
=1000000000	-13.8545
▁qtd	-13.8546
▁under	-13.8546
▁avg	-13.8547
Statements	-13.8547
▁allocat	-13.8547
▁rever	-13.8548
▁shai	-13.8548
bi	-13.8548
▁defined	-13.8555
(1000);	-13.8557
▁lewa	-13.8558
▁marge	-13.8565
▁minDif	-13.8567
))))))	-13.8567
▁prawa	-13.8568
▁myFile	-13.8569
'3'	-13.8569
▁borne	-13.8569
▁Operation	-13.857
▁normalize	-13.857
000000000000000	-13.857
▁Main	-13.8571
▁os	-13.8573
]]++	-13.8583
Red	-13.8583
xy	-13.8585
▁86400-	-13.8595
▁minCoins	-13.86
180	-13.8602
▁andaw	-13.8602
▁2.0))	-13.8603
▁vocal	-13.8603
▁totals	-13.8603
▁15}	-13.8604
▁ispalin	-13.8607
[4000	-13.8607
maxcount	-13.8608
*2+1	-13.8609
▁ispal	-13.8611
▁sqrs	-13.8611
each	-13.8614
▁empt	-13.8614
▁10004	-13.8619
▁getB	-13.8621
▁rotatey	-13.8624
▁group	-13.8627
▁smallans	-13.8627
▁GT	-13.8628
[1002	-13.8637
-1+	-13.8641
▁dics	-13.8651
▁dec	-13.8656
ation	-13.8664
▁getit	-13.8667
nowp	-13.8677
▁imulai	-13.8678
▁IN	-13.8678
▁html	-13.8679
▁wynb	-13.868
▁BigMod	-13.8681
▁isyuan	-13.8682
▁cyka	-13.8682
▁buttons	-13.8682
kind	-13.8682
▁seleccion	-13.8683
▁colour	-13.8683
strc	-13.8683
▁insercion	-13.8683
▁thislen	-13.8685
▁close	-13.869
[32]	-13.8693
▁minson	-13.8711
▁jmx	-13.8712
▁exrt	-13.8712
▁100002;	-13.8714
▁1000000004	-13.8715
▁facto	-13.8715
▁jia	-13.8727
▁dodec	-13.8729
▁getmax	-13.8733
tep	-13.8734
▁502	-13.8736
dama	-13.8736
▁1000009	-13.8736
tttt	-13.8738
▁moveS	-13.8738
▁zzzz	-13.8739
▁-999999999	-13.874
▁27;	-13.874
']/2	-13.8741
▁yd	-13.8742
▁555	-13.8747
▁countstep	-13.8748
▁MAXB	-13.875
▁bsend	-13.8751
BB	-13.8752
▁sqr	-13.8758
▁digitsum	-13.8762
▁updt	-13.8765
▁pairsort	-13.8766
sb	-13.8766
▁qry	-13.877
▁imp	-13.8779
lg	-13.8782
▁couner	-13.8786
*1.0)	-13.8789
▁minima	-13.8791
▁functi	-13.8801
)];	-13.8806
[310]	-13.8813
obe	-13.8815
▁trans	-13.8816
sam	-13.8819
ete	-13.8822
per	-13.8822
=100000	-13.8824
▁rotatex	-13.8826
▁rps	-13.883
▁'8')))	-13.8834
▁isit	-13.8834
▁vsz	-13.8836
niz	-13.8844
204	-13.8855
sh	-13.886
▁setbit	-13.8861
did	-13.8863
▁xian	-13.887
▁2000010;	-13.887
▁dian	-13.887
▁cho	-13.8871
]]--	-13.8871
bic	-13.8872
▁mar	-13.8874
maxnum	-13.8885
▁paramet	-13.8893
▁mxj	-13.8894
[102][102];	-13.8908
)'	-13.892
[24	-13.8922
#.#.|.|""	-13.8931
265358979323846	-13.8934
▁mon	-13.8938
▁155	-13.894
idxb	-13.8941
▁decimals	-13.8946
▁mcnt	-13.8948
▁maxima	-13.8951
▁inte	-13.8958
'*')	-13.8965
▁-5000000	-13.8968
▁100000000000;	-13.8976
-1][2]	-13.898
▁50000	-13.8987
3.0	-13.8988
686	-13.8991
▁summax	-13.9002
▁dst	-13.9003
we	-13.903
[200	-13.9034
▁250.	-13.9038
((*	-13.9039
removeDuplicates	-13.9039
sc	-13.9041
)])	-13.9056
rMod	-13.9069
105	-13.907
]-'0')	-13.9075
▁link	-13.9076
-12	-13.9081
▁1000003)	-13.9105
▁144	-13.9113
▁14;	-13.9119
▁""..|""	-13.9119
=10000	-13.9121
▁1000007;	-13.9124
15);	-13.913
▁3000001	-13.913
▁RE	-13.9133
[7]++;	-13.9135
▁spc	-13.9146
▁wc	-13.9154
reset	-13.9168
ger	-13.9169
▁91	-13.9192
55];	-13.9196
▁99999,	-13.9197
▁fq	-13.9203
ya	-13.9229
[1500];	-13.923
0000000	-13.9238
])));	-13.924
sPer	-13.9241
[16]	-13.9244
▁jpar	-13.925
bst	-13.9257
ever	-13.9291
▁impossible	-13.9292
▁10.0)	-13.9295
▁512	-13.9318
▁bin	-13.9327
▁mmp	-13.9333
▁chara	-13.9348
8979323846264338	-13.9351
▁anti	-13.9368
][8]	-13.938
▁poss	-13.9381
▁vid	-13.9382
1<=	-13.9397
[4][5]	-13.9419
▁gcdd	-13.9424
▁26-	-13.9429
▁1007;	-13.9437
▁(3*	-13.9445
[4]+	-13.9455
----	-13.9464
[7-	-13.9478
sm	-13.9514
▁kan	-13.9522
▁400;	-13.9527
▁qbe	-13.9533
lc	-13.9553
Maxn	-13.9574
▁issquare	-13.9575
▁'9'))	-13.9585
▁mxd	-13.9591
▁nol	-13.9605
(!	-13.9617
▁cil	-13.9619
,31,30,31,30,31	-13.9629
▁86	-13.9634
▁2][	-13.9643
▁prin	-13.9645
▁idxa	-13.9649
▁files	-13.968
▁settings	-13.9682
]))))	-13.9687
▁oct	-13.9704
▁bi	-13.971
[10000	-13.9725
▁180))	-13.9735
▁Ad	-13.9772
▁increme	-13.9775
▁tott	-13.978
60	-13.9782
turns	-13.9786
'('	-13.9805
▁16;	-13.981
▁numa	-13.9816
2[100005];	-13.9818
nex	-13.9825
((3*	-13.9843
0}	-13.9845
▁divisi	-13.9848
]*(	-13.9852
2[2]	-13.9859
▁"",0	-13.9869
[4][	-13.9871
[605]	-13.988
ascii	-13.988
[20000	-13.989
sumw	-13.9891
modl	-13.99
-1]-1	-13.9903
▁exl	-13.9909
kh	-13.9911
▁me	-13.9937
▁+1	-13.9952
een	-13.996
exc	-13.9967
▁320	-13.9968
▁alen	-13.9975
[4][4]	-13.998
▁vA	-13.9992
[0]+	-13.9995
101	-14.0008
[1004]	-14.003
[107]	-14.0032
▁elemens	-14.0059
▁tha	-14.0065
▁diy	-14.0073
32"	-14.0085
ard	-14.0087
etime	-14.0103
▁instr	-14.0106
jmin	-14.0119
'0')	-14.0124
1001	-14.0124
▁46	-14.0124
▁205;	-14.0142
▁47;	-14.0145
▁al	-14.0147
[2010]	-14.0168
ead	-14.0173
locale	-14.0174
▁101000	-14.0178
▁1009	-14.0193
rtr	-14.0194
▁'&'	-14.0202
▁-9999999999	-14.022
counta	-14.023
toup	-14.0235
[35];	-14.0265
▁Total	-14.0271
(9);	-14.0276
2*	-14.0282
[2000	-14.0284
▁sumD	-14.0285
ifprime	-14.0329
▁isA	-14.0335
▁sod	-14.034
▁-99999999	-14.0355
gs	-14.0373
())])]	-14.0393
[2][0],	-14.0401
▁Finite	-14.0403
xcost	-14.0412
1*	-14.0425
▁minvalue	-14.0428
maxa	-14.043
▁ba	-14.0433
-1]<	-14.0436
▁kir	-14.0436
▁ansx	-14.045
▁andd	-14.0472
trig	-14.0478
▁2501]	-14.0483
xmin	-14.0484
shu	-14.0484
summ	-14.049
[200007];	-14.0494
ask	-14.0496
0];	-14.0499
both	-14.0514
▁1110	-14.0515
minstring	-14.0517
[3][1]	-14.0518
▁'-');	-14.0518
am	-14.0527
shift	-14.0545
[100004];	-14.0551
ymin	-14.0564
0));	-14.0568
▁concatenat	-14.058
(4	-14.0583
▁510	-14.0601
[1]+	-14.0606
mov	-14.0606
▁33	-14.0622
202000	-14.0624
▁5000;	-14.0632
yb	-14.0644
*2-1	-14.0645
▁declara	-14.0658
▁sL	-14.0659
▁3}	-14.0667
1[15]	-14.068
moda	-14.0696
An	-14.0699
nc	-14.0714
▁evn	-14.0721
jmax	-14.0747
cmax	-14.0748
▁10000007	-14.0758
po	-14.0768
wins	-14.0783
26	-14.079
[103]	-14.0799
▁99999999999;	-14.0805
▁((5	-14.0806
▁1000);	-14.0823
▁6-	-14.0829
asm	-14.0846
2[0]]	-14.0847
▁minu	-14.0853
▁nil	-14.0858
▁150000	-14.088
▁flage	-14.0908
▁modx	-14.0938
dimension	-14.0962
▁ttt	-14.0968
[501][501]	-14.0989
1=0,	-14.0998
'0');	-14.1007
▁icos	-14.1009
ou	-14.101
ge	-14.1021
isAns	-14.1027
▁ES	-14.1041
▁isP	-14.1044
▁newM	-14.1087
pan	-14.1111
2[105];	-14.1115
998244353	-14.1128
▁ansb	-14.1133
dc	-14.1138
▁fth	-14.1169
que	-14.1169
palin	-14.1182
rlmoves	-14.1183
[305]	-14.1188
▁1]));	-14.1197
▁{-1	-14.1213
▁sums	-14.122
contador	-14.1234
25];	-14.1237
equals	-14.1237
amount	-14.1241
cd	-14.128
toggle	-14.1286
80]	-14.1295
alph	-14.1296
▁300001	-14.1301
leaf	-14.1311
cpy	-14.1317
previous	-14.1318
caso	-14.1324
take	-14.1329
▁mnts	-14.1332
difference	-14.1339
fLL	-14.1342
choose	-14.1347
Map	-14.135
workTime	-14.135
chris	-14.1351
winC	-14.1356
people	-14.1359
Primes	-14.1372
posiciones	-14.1384
satu	-14.1384
forward	-14.1388
pangkat	-14.1389
army	-14.1389
profits	-14.1392
orgStr	-14.1392
spykeId	-14.1396
wrong	-14.1397
distinct	-14.1398
minute	-14.14
rides	-14.14
linha	-14.14
phack	-14.14
spyke	-14.1401
0.5	-14.1404
esPrimo	-14.1405
ivmind	-14.1406
Freq	-14.1408
verticalMoves	-14.1409
MashaCount	-14.141
ciel	-14.1411
aramic	-14.1411
qingkuang	-14.1411
toPurchase	-14.1412
sideMoves	-14.1412
vertical	-14.1413
secondPointer	-14.1413
dryer	-14.1413
fastExp	-14.1413
comando	-14.1413
setTree	-14.1413
zeroNum	-14.1414
resolver	-14.1414
employee	-14.1414
margesort	-14.1414
mainvector	-14.1415
evaluate	-14.1415
question	-14.1415
schedule	-14.1416
chang	-14.1416
menorW	-14.1417
yelo	-14.1417
menorB	-14.1419
Ids	-14.142
Data	-14.142
pick	-14.142
highid	-14.1421
setIt	-14.1422
desk	-14.1426
getwin	-14.1427
strength	-14.1427
grest	-14.1429
NULL	-14.1431
MAT	-14.1436
101,	-14.1437
peso	-14.1437
ON	-14.144
findfa	-14.1443
movy	-14.1445
tank	-14.1446
nomer	-14.1449
divis	-14.1452
▁cmin	-14.1458
box	-14.1459
removeDuplicate	-14.1459
qiu	-14.146
[99]	-14.146
samey	-14.1463
amounts	-14.1468
elevator	-14.1468
256	-14.1469
tipe	-14.147
[30000	-14.147
▁tables	-14.1471
hush	-14.1476
loct	-14.1476
maxcol	-14.1476
inside	-14.1477
▁zw	-14.1485
.|.|)	-14.15
toast	-14.1501
▁ansm	-14.1506
▁maxd	-14.1506
[1111];	-14.1512
(1))	-14.1523
'5'	-14.153
util	-14.1531
mCount	-14.1533
180.0	-14.1537
sumdn	-14.1542
sumtp	-14.1544
pu	-14.1551
blep	-14.1557
▁30000	-14.1557
cprice	-14.1566
lift	-14.1567
lft	-14.1568
501;	-14.1572
▁(*(	-14.1583
[600]	-14.159
▁valu	-14.1606
cntc	-14.1612
link	-14.1612
scored	-14.1636
any	-14.1638
ttwo	-14.1662
[2]-	-14.1665
shela	-14.1675
LC	-14.1688
▁endloop	-14.1691
0005	-14.1695
▁arrA	-14.1696
▁selectionSort	-14.1706
[2]+	-14.1709
bin	-14.1732
cups	-14.1734
▁bstart	-14.1739
FA	-14.1742
ecz	-14.1745
flat	-14.1755
▁310	-14.1757
▁xa	-14.1758
▁continu	-14.1759
got	-14.1765
▁absolut	-14.1788
angkat	-14.179
▁bools	-14.18
ather	-14.1805
▁6666	-14.1806
▁absolu	-14.181
-=	-14.1814
▁""2	-14.1815
▁9000	-14.1817
StationsDistance	-14.1822
[24][60]	-14.1822
[600][600]	-14.1822
commamd	-14.1822
▁-2139062143	-14.1822
▁2139062143	-14.1822
▁235034914	-14.1822
▁definition	-14.1822
▁exlcusive	-14.1822
▁fucntion	-14.1822
▁instruction	-14.1822
▁lexicographic	-14.1822
▁matrices	-14.1822
▁successful	-14.1822
Divisor	-14.1822
[5100]	-14.1822
▁{{0}}	-14.1822
▁propblem	-14.1822
▁wolf	-14.1822
(1000007)	-14.1822
▁downward	-14.1822
▁excluding	-14.1822
▁sequentially	-14.1822
[103][103]	-14.1822
▁sumcclock	-14.1823
[11][111]	-14.1823
[300009];	-14.1823
[609]	-14.1823
6+7	-14.1824
numCap	-14.1824
▁777}	-14.1824
=100*	-14.1824
▁mySS	-14.1824
tetr	-14.1824
[200200]	-14.1825
[700]	-14.1825
▁exclu	-14.1826
[4010]	-14.1826
▁postdecrement	-14.1826
▁getdigits	-14.1826
[545]	-14.1827
▁esle	-14.1827
[100500]	-14.1827
[100003];	-14.1828
▁cntlw	-14.1828
tely	-14.1829
▁indefin	-14.183
/(2*	-14.183
▁200025	-14.1831
btdc	-14.1832
[123]	-14.1833
[1000007];	-14.1834
fpow	-14.1836
▁10007	-14.1837
(101);	-14.1838
[500000]	-14.1838
▁""1/6""}	-14.1839
]-'0')-	-14.184
ction	-14.184
249(	-14.184
+3*	-14.184
][1]][	-14.1842
[106]	-14.1843
[2][2001][2001]	-14.1845
[256]	-14.1848
newsum	-14.1849
[5010]	-14.1852
▁mycmp	-14.1853
▁tempr	-14.1855
▁0.000001)	-14.1855
▁excl	-14.1855
▁777	-14.1858
[360]	-14.1859
▁405	-14.1862
[502]	-14.1864
org	-14.1866
BS	-14.1866
▁itneger	-14.1875
sw	-14.1877
▁lengh	-14.1879
[601]	-14.1886
▁appen	-14.1889
[405]	-14.1891
▁problem	-14.1892
ally	-14.1892
▁0123456789	-14.1894
▁100006	-14.1894
[101][6]	-14.19
▁resultsquare	-14.1902
▁""?"")	-14.1902
▁370	-14.1909
▁360/	-14.1912
[1000006][2]	-14.1913
▁17576	-14.1915
▁Eu	-14.1922
1069	-14.1922
[1000][50	-14.1923
▁moze	-14.1927
▁palindrom	-14.1929
▁split	-14.1931
[6-	-14.1931
▁unionn	-14.1931
▁""444""	-14.1932
▁frac	-14.1932
▁isPref	-14.1933
▁areSame	-14.1933
▁fatora	-14.1934
▁sushu	-14.1934
▁cherk	-14.1934
▁cleaner	-14.1934
▁esPosible	-14.1934
▁already	-14.1934
▁statmnts	-14.1934
▁setunion	-14.1934
▁theBrickS	-14.1934
▁hasDigit	-14.1934
▁isAbsent	-14.1934
▁isDanger	-14.1934
▁hasLarge	-14.1934
▁hasSmall	-14.1934
▁palinoal	-14.1935
▁proverka	-14.1935
▁getDigits	-14.1935
▁GetStone	-14.1935
▁addBinary	-14.1935
▁buhuiwen	-14.1935
▁gnomeSort	-14.1935
▁predicate	-14.1935
▁ChuyenDoi	-14.1935
▁FillArray	-14.1935
▁isDistinct	-14.1935
▁isPrefix	-14.1935
▁isboundary	-14.1935
▁splitTime	-14.1935
▁sumofdigit	-14.1935
divs	-14.1935
▁CalTime	-14.1935
▁orderArguments	-14.1935
▁checkDigit	-14.1935
▁FirstMulti	-14.1935
▁SecondMulti	-14.1936
▁FindNotFound	-14.1936
▁countLuckyNum	-14.1936
▁checkTriangle	-14.1936
▁isPerfectSquare	-14.1936
▁except	-14.1936
▁checkbottom	-14.1937
▁sameletter	-14.1938
vowels	-14.1939
▁shee	-14.1939
hist	-14.1939
▁selsort	-14.1944
▁xuli	-14.1949
[2][101],	-14.195
[65]	-14.195
▁2020	-14.1952
31	-14.1953
anc	-14.1956
▁kMaxN	-14.1964
▁unio	-14.1966
▁clockwise	-14.1967
▁setIO	-14.1967
isv	-14.1968
reach	-14.1968
/2-1	-14.1972
▁isCheck	-14.1972
[1000000	-14.1976
▁rhs	-14.1981
▁sevenCount	-14.1982
esq	-14.1983
kc	-14.1987
▁')';	-14.1988
/11	-14.1993
▁lhs	-14.1999
▁valini	-14.2006
300009	-14.2013
tone	-14.2015
▁',0	-14.2016
/2*	-14.2022
▁1)]	-14.2025
▁LG	-14.2031
▁checkright	-14.2033
▁vocals	-14.2034
▁hanako	-14.2035
▁isDt	-14.2036
▁stg	-14.2049
(1000000000	-14.205
▁zx	-14.2052
▁chec	-14.2052
▁tetr	-14.2052
▁replace	-14.2053
▁ave	-14.2054
▁Lucky	-14.2055
-1)*(	-14.2056
▁incre	-14.2056
▁epar	-14.2058
)*3	-14.2061
▁lexi	-14.2061
roduce	-14.2063
ap	-14.2074
rgt	-14.2078
)]=	-14.2087
▁4005	-14.2087
na	-14.2093
SP	-14.2095
+1)*(	-14.2096
▁checkleft	-14.2099
▁dragon	-14.2099
▁250.0)	-14.2107
90(	-14.2109
hb	-14.2119
][7]	-14.2123
▁checktop	-14.2126
[10][100]	-14.2144
▁17;	-14.2145
[2005][2005];	-14.215
dic	-14.2153
▁chat	-14.2153
▁gem	-14.2155
▁basi	-14.2155
▁printDiamond	-14.2157
limit	-14.2157
▁ture	-14.2158
))->	-14.2167
nl	-14.2176
pply	-14.2179
)+(	-14.2199
▁""10""	-14.2208
)-	-14.2211
▁arx	-14.2216
2222	-14.2218
▁runn	-14.2224
Int	-14.2226
""2"")	-14.2227
]*	-14.2234
▁substr	-14.2248
▁100020	-14.2251
asn	-14.2252
parat	-14.2252
teps	-14.2254
▁dsum	-14.2255
▁pans	-14.2258
[125]	-14.2269
atch	-14.2269
▁sortby	-14.2284
▁phack	-14.2284
▁rel	-14.2286
[4][11]	-14.229
bx	-14.2296
▁-100000000	-14.2296
om	-14.2307
▁halfplus	-14.2308
istrue	-14.2319
kir	-14.2344
▁arc	-14.2363
[1][1],	-14.2365
▁ish	-14.2369
=10001	-14.2376
]-1	-14.2379
▁swp	-14.2385
-1][2])	-14.2416
/4)	-14.2423
▁charcter	-14.2425
▁9999999999999	-14.2425
(202	-14.2441
[105][3]	-14.2443
fine	-14.2444
(5)	-14.2454
(""3	-14.2465
('#'	-14.2473
eld	-14.2479
▁mis	-14.2482
4999	-14.2486
▁1008	-14.2513
>=1	-14.2518
'*'	-14.2518
nik	-14.2539
6.	-14.2543
▁10)]	-14.255
3)+	-14.2552
[300300]	-14.2562
lin	-14.2571
▁fu	-14.2591
minD	-14.2592
[104];	-14.2593
winc	-14.2599
ngle	-14.26
▁{'\0'};	-14.2604
▁cans	-14.2617
++"")	-14.2622
[100][2]	-14.2632
Sort	-14.2645
▁-100;	-14.2665
(9	-14.2675
▁mmi	-14.269
2=10	-14.2698
('-'))	-14.2706
ange	-14.271
▁360));	-14.2736
5+1	-14.275
1[10000];	-14.2762
[15000	-14.2777
▁cpr	-14.2787
'];	-14.2795
maxA	-14.2796
ach	-14.2799
10];	-14.2846
▁cntd	-14.2861
_3	-14.2863
12[	-14.2867
▁1000002;	-14.2884
▁jv	-14.2889
▁12);	-14.2895
yd	-14.2904
restaurants	-14.2911
▁ts	-14.2952
maps	-14.2952
▁""0"")	-14.2958
▁'['))	-14.2959
elemento	-14.2963
▁ABS	-14.2964
inimum	-14.2964
▁mind	-14.2999
egers	-14.3029
bY	-14.3033
[18]	-14.3033
2+1	-14.3036
▁tone	-14.3046
▁dix	-14.3048
ther	-14.3049
▁printed	-14.3069
]-97	-14.307
gna	-14.3073
▁128;	-14.3086
ft	-14.3103
51	-14.3104
,'	-14.3109
▁(1000000	-14.3131
[300001];	-14.3133
▁bla	-14.316
3[1]	-14.316
wp	-14.317
[11	-14.3189
6000000	-14.3196
▁andab	-14.3205
▁gum	-14.3214
(1000000	-14.322
][0]][	-14.3223
7"")	-14.3229
▁#)	-14.3241
▁35)	-14.3246
▁'7';	-14.3251
▁sk	-14.3258
▁der	-14.3263
[9	-14.3277
-1])/	-14.3289
qsort	-14.3293
__	-14.3293
20,	-14.3306
▁car	-14.3326
vie	-14.3328
▁1023;	-14.3328
▁anew	-14.334
ipos	-14.3341
0]	-14.3345
▁couting	-14.3354
▁xt	-14.3384
3[2]	-14.3386
variable	-14.3398
180-	-14.3402
[201][201];	-14.3405
▁sorty	-14.3408
▁20))	-14.3436
prep	-14.3464
▁bj	-14.3485
▁-(	-14.3488
▁au	-14.3491
▁modl	-14.3501
▁1,000	-14.3503
▁202	-14.3505
va	-14.3522
16;	-14.3528
▁'('))	-14.3531
ish	-14.3543
▁""5	-14.3546
97	-14.3548
ti	-14.3558
▁Olya	-14.3567
▁1100;	-14.3575
-1][1])	-14.3592
ai	-14.3609
▁fA	-14.3612
▁some	-14.3623
[26][26];	-14.3636
▁ly	-14.3642
▁..|	-14.3652
▁361	-14.3661
▁92)	-14.3662
▁Nikita	-14.3673
movx	-14.3688
▁Danil	-14.3688
[500005]	-14.3719
10000	-14.3725
5002	-14.3734
▁(27	-14.3754
▁vst	-14.3769
▁arrx	-14.377
▁du	-14.3777
▁yinc	-14.3778
sumD	-14.3781
stop	-14.3787
▁zhi	-14.3797
▁3]]	-14.3806
[21]	-14.3806
+1-	-14.381
ow	-14.3817
-4	-14.382
modulo	-14.3834
[56];	-14.3837
▁ob	-14.3841
sa	-14.3841
em	-14.3848
))/	-14.3857
ost	-14.3904
*((	-14.3906
RS	-14.3911
▁lnum	-14.3914
[26][26]	-14.3923
▁et	-14.3928
▁.	-14.3946
4"")	-14.3951
▁eat	-14.3968
2[10];	-14.3988
[107];	-14.4
pairt	-14.4008
[1004];	-14.4009
-32	-14.4013
press	-14.4019
▁mnx	-14.4024
""\	-14.404
maxr	-14.405
▁81)	-14.4068
[0][3])	-14.407
[5000000]	-14.407
bX	-14.4079
168	-14.4081
continue	-14.4081
▁10)];	-14.4085
cstart	-14.4093
▁!((	-14.4095
▁slast	-14.4098
[1]-	-14.4103
27	-14.418
▁58)	-14.42
360	-14.4234
[3]+	-14.4237
▁sim	-14.425
3-	-14.4262
[5005]	-14.4263
▁130	-14.4268
[1])))	-14.4297
6+10	-14.4307
cho	-14.4322
0(	-14.4329
300005	-14.4346
1_	-14.4365
1=(	-14.4365
elete	-14.4365
9999;	-14.4368
nnl	-14.4369
gmax	-14.4373
▁chm	-14.4414
inch	-14.443
▁mabs	-14.4445
686;	-14.4446
2)+(	-14.4463
2+1)	-14.448
-1};	-14.4506
4.	-14.4522
▁2500;	-14.4593
erator	-14.4602
[400	-14.4604
▁100000000)	-14.4604
2(2	-14.4651
space	-14.4652
[201][201]	-14.4672
fre	-14.468
-11	-14.4698
mna	-14.4708
2007	-14.4712
][4	-14.4712
▁cb	-14.4717
='	-14.4729
-1]*	-14.4734
mnx	-14.4764
▁vc	-14.477
fy	-14.4774
enc	-14.4782
▁[3][3]	-14.4801
[0][0]=	-14.4804
umb	-14.4833
[2]--;	-14.4842
stringstream	-14.4875
cm	-14.4895
▁nM	-14.4954
[90]	-14.4987
'));	-14.4988
64,	-14.4994
1[101]	-14.4997
[300001]	-14.5018
()][	-14.5025
()];	-14.5026
bnew	-14.5037
*2)	-14.5046
▁mmap	-14.5047
INE	-14.5097
;)	-14.5117
'-'	-14.5136
]-1)	-14.5136
1[1])	-14.5152
tx	-14.5168
[35][35]	-14.5171
(1005	-14.5173
(-1.0	-14.5192
following	-14.5193
(15	-14.5199
▁tow	-14.521
foo	-14.5223
▁appe	-14.5225
▁mq	-14.5226
-1]))	-14.5231
▁hr	-14.524
'>'	-14.5243
100];	-14.526
▁3.14159265358	-14.5279
▁1011	-14.5296
multiply	-14.53
ii	-14.5328
/6	-14.5352
ud	-14.5357
2002];	-14.5379
mmap	-14.5388
nor	-14.5394
ntegers	-14.5396
paint	-14.5414
turned	-14.5446
3];	-14.5458
[30010]	-14.5479
▁inclu	-14.5489
#.#.#.#.	-14.5508
[111111]	-14.5514
mem	-14.5524
▁2001;	-14.5556
slice	-14.5557
ob	-14.559
[3000	-14.5597
▁900000000	-14.5602
[1007	-14.5627
au	-14.5632
vaa	-14.5632
200005	-14.5648
imum	-14.5649
correct	-14.5659
0+	-14.5667
mak	-14.569
[300300];	-14.5719
tl	-14.5726
▁101)	-14.5726
dq	-14.5735
▁106	-14.5743
▁ansy	-14.5747
nts	-14.5749
▁35;	-14.5749
▁ansA	-14.5752
ning	-14.5753
]]);	-14.5766
▁rcnt	-14.5767
6];	-14.5776
pple	-14.579
pA	-14.5792
xc	-14.5798
SS	-14.5809
▁Cube	-14.5811
vl	-14.5811
▁bv	-14.583
1000000009	-14.5879
aexc	-14.5885
▁Rn	-14.5896
{1};	-14.5911
until	-14.5914
ned	-14.5922
Input	-14.5927
▁mna	-14.5943
[10001	-14.5948
uno	-14.5958
PE	-14.5961
Pow	-14.5968
▁gen	-14.5979
00000000000000	-14.5994
curlower	-14.5995
=500	-14.5998
▁(7)	-14.6014
goal	-14.6038
+10	-14.605
▁lp	-14.6052
▁65)	-14.6055
other	-14.6063
player	-14.609
']=	-14.6121
▁Ann	-14.6126
▁Octahedron	-14.6136
numOps	-14.6139
values	-14.614
+1]=	-14.6146
Next	-14.6147
ort	-14.6152
▁endj	-14.6155
love	-14.6162
▁Tetrahedron	-14.6162
hate	-14.6163
▁creat	-14.6178
▁Dodecahedron	-14.6179
)->	-14.6187
4[0]	-14.6187
pref	-14.6196
ansA	-14.6198
urn	-14.6207
25	-14.6222
block	-14.6222
][1]=	-14.6223
2[3]	-14.6231
convert	-14.6233
3+	-14.6237
3(	-14.6237
banyak	-14.6253
city	-14.6254
person	-14.6259
inches	-14.6266
coord	-14.6269
raw	-14.627
location	-14.6273
self	-14.6288
has	-14.6301
ANS	-14.6301
wait	-14.6303
safe	-14.6308
lzl	-14.6309
statment	-14.6322
denominator	-14.6322
creat	-14.6324
Waste	-14.6325
capacity	-14.6326
nextPrime	-14.6327
friends	-14.6329
simon	-14.6329
buffer	-14.633
numedges	-14.633
dodec	-14.6331
argmini	-14.6335
finall	-14.6337
walk	-14.6338
passengers	-14.6343
divisores	-14.6346
poskupi	-14.6348
recorrer	-14.6348
ganjilterkecil	-14.6353
four	-14.6353
banyakganjil	-14.6354
9876	-14.6355
chance	-14.6359
valori	-14.636
initial	-14.636
Orange	-14.6365
pearl	-14.6366
exrt	-14.6373
javab	-14.6373
Mon	-14.6374
actual	-14.6376
bitset	-14.6376
helper	-14.6376
hunger	-14.6376
assistantTemps	-14.6378
wincandidate	-14.638
secretaryNum	-14.638
amigos	-14.6382
group	-14.6382
maap	-14.6382
midTime	-14.6382
curDay	-14.6382
cheapest	-14.6383
catur	-14.6384
curAns	-14.6384
secnumbs	-14.6384
testcases	-14.6384
maxName	-14.6385
getNum	-14.6385
dragon	-14.6386
bohlam	-14.6386
borderPoints	-14.6388
newnut	-14.6389
leaves	-14.639
tedad	-14.6391
downLetter	-14.6391
""8<""	-14.6391
identical	-14.6392
Roz	-14.6392
shoes	-14.6392
upLetter	-14.6393
house	-14.6393
watched	-14.6394
CalculatePrimes	-14.6394
insercion	-14.6394
tempSame	-14.6394
Names	-14.6395
seleccion	-14.6395
isPalindrome	-14.6395
CountOfMoney	-14.6395
works	-14.6395
buttons	-14.6396
cardOnTable	-14.6396
control	-14.6396
isNoldPrime	-14.6396
isPrimeRoot	-14.6396
maxSections	-14.6396
curWorst	-14.6396
parity	-14.6396
timr	-14.6396
downloaded	-14.6397
isyuan	-14.6397
allAreSame	-14.6397
dependency	-14.6397
couner	-14.6397
colour	-14.6397
BigMod	-14.6397
""1111111""	-14.6397
thislen	-14.6397
antisimon	-14.6398
raices	-14.6398
SumOf	-14.6399
coupons	-14.64
arreglo	-14.64
refrence	-14.64
isluck	-14.6401
nowsafe	-14.6401
noldbach	-14.6401
delta	-14.6401
choice	-14.6401
vashya	-14.6401
wynb	-14.6401
triangle	-14.6402
extrema	-14.6402
source	-14.6402
smlr	-14.6403
nrsel	-14.6403
cyka	-14.6403
satuan	-14.6403
termina	-14.6403
zhu	-14.6403
succ	-14.6404
minson	-14.6404
jiati	-14.6404
minimun	-14.6405
html	-14.6405
digui	-14.6405
gifts	-14.6405
texto	-14.6406
username	-14.6406
imulai	-14.6406
tstudy	-14.6407
▁lg	-14.6407
merger	-14.6409
hutch	-14.6409
prefixed	-14.6409
pearls	-14.641
choc	-14.641
ispalindrome	-14.6412
larger	-14.6413
insertion	-14.6415
flagee	-14.6416
curMin	-14.6416
strArr	-14.6417
maximo	-14.6418
nextprime	-14.6419
maxlevel	-14.642
maior	-14.642
ase	-14.6421
▁250.0	-14.6422
""144""	-14.6429
firstOn	-14.6429
blocka	-14.6431
zerocnt	-14.6431
minsq	-14.6432
absent	-14.6433
kpk	-14.6433
king	-14.6433
sizebul	-14.6433
contM	-14.6437
currgcd	-14.6438
updt	-14.644
moveS	-14.6441
levl	-14.6448
▁enc	-14.645
links	-14.6462
da	-14.647
Mcost	-14.647
▁11111111	-14.6471
cake	-14.6472
/1	-14.6474
norm	-14.6476
winB	-14.6476
lvl	-14.6477
bran	-14.6478
77	-14.6479
▁vb	-14.6479
""0000000""	-14.6482
marked	-14.6484
[501	-14.6485
soma	-14.6487
beg	-14.6491
curY	-14.6494
bulbs	-14.6496
*1.0	-14.6496
streak	-14.6498
uion	-14.6499
1000000010	-14.6501
dish	-14.6502
doit	-14.6503
izq	-14.6504
allB	-14.6509
vow	-14.6513
tipo	-14.6517
sumeven	-14.6517
signal	-14.6519
Res	-14.6522
statements	-14.6522
▁30);	-14.6526
)*1.0	-14.6528
2333	-14.6543
▁(((1	-14.6544
lcp	-14.6549
syl	-14.6549
▁100.0	-14.6551
kill	-14.6557
500;	-14.6567
buy	-14.6568
nslice	-14.6571
curX	-14.6579
allA	-14.658
▁8000	-14.6591
samex	-14.6592
unit	-14.6597
▁500005	-14.6602
putit	-14.6603
diry	-14.6607
48);	-14.6621
cntone	-14.6624
tplayers	-14.6625
▁.)	-14.6627
drinks	-14.6629
ubtract	-14.663
able	-14.6634
5][25]	-14.6642
lst	-14.6642
levels	-14.6647
ats	-14.6653
▁grea	-14.6669
▁12345678	-14.6672
▁rp	-14.6675
mcd	-14.6676
hot	-14.6677
""?"")	-14.6682
[18	-14.6685
matr	-14.6686
250	-14.6694
""[]""	-14.6696
unction	-14.6707
1000010	-14.6709
▁'0'));	-14.6711
ashu	-14.6715
▁tol	-14.6719
▁400000	-14.6724
chI	-14.6731
tren	-14.6737
months	-14.6737
whil	-14.6738
suml	-14.6739
▁-1000000000000	-14.6744
▁15000	-14.6751
ultiple	-14.6752
())))	-14.6755
ontrol	-14.6757
▁166	-14.6758
deq	-14.6762
mz	-14.6776
im	-14.6778
*60	-14.6778
[100001	-14.6785
▁-10000000	-14.6785
+1000	-14.6786
▁[105][105]	-14.6789
▁(36	-14.6791
ffffff	-14.6791
▁"";	-14.6791
▁stdou	-14.6791
▁caden	-14.6795
xian	-14.6804
▁30003	-14.6807
ctahedron	-14.681
eCount	-14.6813
odecahedron	-14.6819
etrahedron	-14.6819
▁123456	-14.6821
cosahedron	-14.6821
▁DELTA	-14.6822
cessful	-14.6822
▁isPresent	-14.6822
▁nCrModp	-14.6822
(123456)	-14.6822
(5.100)	-14.6822
)10.00)	-14.6822
)5.00)	-14.6822
0153286060651209	-14.6822
1(100020)	-14.6822
1,3,5,7,	-14.6822
243554	-14.6822
691074	-14.6822
OfEratosthenes	-14.6822
[2600][2600]	-14.6822
[30000][21]	-14.6822
[34][34]	-14.6822
[6005][5]	-14.6822
[696969]	-14.6822
fffffffffffffff	-14.6822
▁""####""	-14.6822
▁""01235689""	-14.6822
▁""3432""	-14.6822
▁""924""	-14.6822
▁-2147483648	-14.6822
▁1000111222	-14.6822
▁1061109567	-14.6822
▁1073741824	-14.6822
▁1123123123	-14.6822
▁131071	-14.6822
▁156544555	-14.6822
▁19260817	-14.6822
▁2012345678	-14.6822
▁2193809	-14.6822
▁23333333	-14.6822
▁31415	-14.6822
▁34298343	-14.6822
▁69696969696	-14.6822
▁8888888890	-14.6822
▁BASE	-14.6822
▁BSearch	-14.6822
▁catalan	-14.6822
▁continuous	-14.6822
▁custom	-14.6822
▁getDivisors	-14.6822
▁immediate	-14.6822
▁maxPrimeFactors	-14.6822
▁myCompare	-14.6822
▁pagamento	-14.6822
▁turimi	-14.6822
▁Magic	-14.6822
▁unchanged	-14.6822
UDRL	-14.6822
▁""221001""}	-14.6822
▁-12312	-14.6822
▁129605	-14.6822
▁9999999999998	-14.6822
▁SPACE	-14.6822
▁argham	-14.6822
2653589793238	-14.6822
[1007][1007]	-14.6822
[301][301]	-14.6822
71720	-14.6822
▁LastCommon	-14.6822
[1111111]	-14.6822
▁0.00001)	-14.6822
▁4610000	-14.6822
▁verdict	-14.6822
▁exclusvie	-14.6822
(1.500)	-14.6822
=2000000007	-14.6822
▁0.0001)	-14.6822
▁""252""	-14.6822
[3007];	-14.6822
▁""12870""	-14.6822
0,20,10	-14.6822
]-1]-1]-1	-14.6822
2(100000000)	-14.6822
[800];	-14.6822
▁""70""	-14.6822
▁atoifunc	-14.6822
▁-699999999	-14.6822
[361]	-14.6823
rement	-14.6823
▁378	-14.6823
▁""48620""	-14.6823
▁200000050	-14.6823
▁quickpow	-14.6823
[1000004];	-14.6823
▁3.14	-14.6823
23846264338327	-14.6823
▁ouput	-14.6823
▁slope	-14.6823
[1008]	-14.6824
▁initially	-14.6824
exception	-14.6824
[1110];	-14.6824
lasth	-14.6824
▁rakm	-14.6824
/250)	-14.6824
[150000]	-14.6824
▁40000001	-14.6824
▁llMin	-14.6824
[811]	-14.6824
▁Unset	-14.6824
▁21474836470000	-14.6825
[100505]	-14.6825
/250)*	-14.6825
[150005]	-14.6825
[3001];	-14.6825
[2505]	-14.6826
▁cmpfunc	-14.6826
[111][111]	-14.6826
▁product	-14.6826
4(2002)	-14.6826
lasti	-14.6826
▁9.8	-14.6826
▁llMax	-14.6826
['<']	-14.6827
answers	-14.6827
[116]	-14.6827
(""-"")	-14.6828
▁222222	-14.6828
(1001);	-14.6828
▁10069	-14.6828
▁200050	-14.6829
▁454	-14.683
▁477}	-14.6831
[1200]	-14.6831
▁occur	-14.6831
▁438	-14.6831
sho	-14.6832
▁10.00)	-14.6833
-2)/	-14.6833
▁gqt	-14.6833
▁tohop	-14.6833
▁9020	-14.6834
failbit	-14.6836
▁588	-14.6836
RAND	-14.6836
▁5.00)	-14.6837
▁20000000000	-14.6838
[3010]	-14.6839
[1020]	-14.6839
▁900001	-14.6839
▁9012	-14.6839
▁lastPos	-14.684
""012	-14.684
*(2*	-14.6842
▁""20""	-14.6843
[320]	-14.6843
[999999]	-14.6845
▁382	-14.6845
*4+	-14.6845
66666	-14.6848
ature	-14.685
▁2000000007	-14.6851
▁346	-14.6852
[66]	-14.6852
▁addMod	-14.6852
▁buck	-14.6854
▁identi	-14.6856
▁MAXULL	-14.6857
123456789	-14.6858
▁fastpow	-14.6858
▁""->""	-14.686
▁23333	-14.686
▁3007	-14.6861
+1000]	-14.6862
[4005]	-14.6862
Lim	-14.6863
▁40.0	-14.6863
rps	-14.6865
▁627	-14.6866
▁2147483640	-14.6868
[150][1000]	-14.6868
pend	-14.6869
rprev	-14.6871
/2)+	-14.6874
▁636	-14.6874
[59]	-14.6875
1[++	-14.6879
156	-14.6879
▁2000000005	-14.688
43}	-14.6882
▁modmul	-14.6883
▁inttostr	-14.6884
▁301002	-14.6885
▁10000020	-14.6886
▁634	-14.6886
ents	-14.6887
rint	-14.6889
nimpar	-14.6894
)-(	-14.6897
▁toString	-14.6897
dirx	-14.69
multimap	-14.6902
ose	-14.6903
▁-135	-14.6903
▁1000008	-14.6906
▁80005	-14.6907
/2)-	-14.691
/6""	-14.691
▁50.0	-14.6911
123457	-14.6911
viy	-14.6916
33399	-14.692
▁64]++;	-14.6924
*8	-14.6925
(105)	-14.6926
gra	-14.6926
▁'['}	-14.6929
5+10	-14.6929
▁404	-14.6931
▁endapp	-14.6937
[35][2]	-14.6937
cans	-14.694
▁-30000	-14.6942
prevr	-14.6945
▁203	-14.6948
▁300030	-14.6948
-50	-14.6948
1[101	-14.6949
wh	-14.695
▁{37,	-14.6951
▁68)	-14.6953
dua	-14.6954
▁minfunc	-14.6957
▁2505	-14.696
acter	-14.696
▁995	-14.696
-1])*	-14.6962
▁maxfunc	-14.6964
gers	-14.6965
][25]	-14.6968
▁1]))]	-14.6971
upd	-14.6973
▁Increme	-14.6975
(100005)	-14.6975
dim	-14.6977
▁-8	-14.6977
fit	-14.6979
[151]	-14.6985
▁-1}}	-14.6987
5][100	-14.6988
▁nPr	-14.699
▁1000000100	-14.699
▁(-7)	-14.6993
2=2*	-14.6993
everse	-14.6998
=99999999	-14.7001
▁gsd	-14.7008
▁179	-14.7008
▁500007	-14.7012
[34]	-14.7013
▁numCup	-14.7014
)((-	-14.7016
▁1,2,3	-14.7017
2*10	-14.7019
▁-9999	-14.7021
modu	-14.7023
▁myC	-14.7023
▁retrun	-14.7024
)(3	-14.7026
2*2	-14.7026
▁1234	-14.7031
▁3.0)	-14.7031
[0]='	-14.7033
▁Sa	-14.7035
▁bakes	-14.704
minvalue	-14.7045
▁digsum	-14.7049
▁guests	-14.7051
DX	-14.7051
1666	-14.7056
RC	-14.7059
1-0	-14.7064
20090	-14.7066
▁-1000001	-14.7074
150005	-14.7077
basi	-14.7077
ncl	-14.708
▁rnum	-14.7087
ho	-14.7089
▁Defin	-14.709
▁-201	-14.7094
▁8000;	-14.7095
BW	-14.7099
▁leve	-14.7101
msh	-14.7102
]-'0']=	-14.7103
])]	-14.7108
▁abso	-14.7109
TB	-14.7112
▁360)	-14.7114
▁numzero	-14.7129
▁Add	-14.7131
bexc	-14.7135
arx	-14.7135
steps	-14.714
[100002	-14.7144
,5,1	-14.7144
=1000000	-14.7146
Multiplication	-14.7147
▁-3000	-14.7155
16)	-14.7161
▁FF	-14.7162
<26	-14.7163
1,-1,0,0	-14.7163
▁plu	-14.7169
amic	-14.7169
qbe	-14.7177
▁391	-14.7178
=3*	-14.718
verif	-14.7182
*2+1)	-14.7187
▁500010	-14.72
▁1000000007}	-14.7215
[100001][2]	-14.7215
odds	-14.7215
2[35]	-14.7221
]=((	-14.7221
▁562	-14.7229
▁535	-14.7233
▁(7-	-14.7241
beginat	-14.7242
▁lx	-14.7248
[200][3]	-14.7249
=55	-14.725
ecrease	-14.7255
2[10000]	-14.726
▁111111111	-14.7262
cnew	-14.7268
▁incl	-14.7273
▁modPower	-14.728
())->	-14.7282
tmpA	-14.7286
PS	-14.7289
bot	-14.7293
▁subset	-14.73
▁{100	-14.7301
▁kl	-14.7302
▁10000000050	-14.7307
▁9876	-14.7312
▁274	-14.7315
nCount	-14.7319
▁recorrer	-14.7319
▁poskupi	-14.7319
2[0]-'	-14.7327
BR	-14.7329
3)/	-14.7344
▁statment	-14.735
▁argmini	-14.7362
[14]	-14.7368
▁loga	-14.7373
▁645	-14.7373
ract	-14.7377
minr	-14.7387
▁2100000000	-14.7387
▁355	-14.739
111111"	-14.739
[7]+	-14.7397
▁unit	-14.7397
flagB	-14.7399
PR	-14.7399
RP	-14.741
dec	-14.7411
▁100015	-14.7412
▁isv	-14.7415
▁-2147483647	-14.7416
oct	-14.7416
[13];	-14.7435
▁800	-14.744
minB	-14.7441
▁66	-14.7441
▁df	-14.7443
OR	-14.7446
cmin	-14.7451
▁10000010	-14.7453
1[4][	-14.7453
idit	-14.7458
600;	-14.7458
▁MAXLL	-14.7458
50000	-14.7468
-1]*2	-14.7486
▁97);	-14.7489
ec	-14.7489
2001,	-14.7492
lse	-14.7493
▁[26][26]	-14.7495
2=99999999	-14.7499
▁merger	-14.75
▁10004;	-14.7502
▁boostI	-14.7502
nak	-14.7502
5555	-14.7506
""()""	-14.7508
.000	-14.7508
▁"">	-14.7514
(210	-14.7536
▁'4';	-14.7537
▁-40	-14.7554
▁517	-14.7557
▁1999999999	-14.7559
wei	-14.7564
2000100	-14.7573
inpp	-14.7575
firstw	-14.7577
xfffffff	-14.7584
nadj	-14.7585
fla	-14.7586
▁12}	-14.7588
▁db	-14.7598
▁solveequal	-14.7598
▁20005	-14.7599
▁239	-14.7603
ci	-14.7608
#.#.|	-14.7624
200300	-14.763
5518	-14.7633
onth	-14.7637
99];	-14.7641
rue	-14.7648
-1]/	-14.7653
▁116	-14.7658
_1;	-14.766
▁Black	-14.7669
▁White	-14.7672
005],	-14.7673
cut	-14.7676
1[102];	-14.7688
11111];	-14.7692
sumB	-14.7713
]-1]	-14.7718
▁kt	-14.7718
▁decremen	-14.7755
▁sabc	-14.7768
nope	-14.7768
TA	-14.7768
▁-9	-14.7772
lista	-14.7777
timer	-14.7793
▁px	-14.7797
(1000	-14.7801
▁-100000	-14.7806
minib	-14.7806
)(++	-14.7813
▁2000005;	-14.7819
▁fs	-14.7828
[6]+	-14.7833
▁0,0,	-14.7834
▁1.5;	-14.7837
(100005	-14.7843
2[12]	-14.7845
/2-	-14.7848
▁""01""	-14.7871
oil	-14.7877
▁marr	-14.7889
arena	-14.79
mq	-14.7905
▁1.0)))	-14.7908
+1]=1	-14.7913
]>0	-14.7914
▁adjo	-14.7916
flagA	-14.7917
▁58;	-14.7919
pas	-14.7935
liz	-14.7939
isgreater	-14.7943
tag	-14.7948
▁1]))))	-14.7964
▁modadd	-14.7966
▁checked	-14.7994
000];	-14.8
((-1	-14.8002
[50000	-14.8008
▁319	-14.8008
8.0	-14.8013
▁ansmap	-14.8032
alp	-14.8038
dr	-14.8048
Rn	-14.8049
▁526	-14.8062
444	-14.8063
lu	-14.8065
▁imn	-14.8068
][3]))	-14.8081
hor	-14.8089
▁0.0;	-14.8096
-1]=1	-14.8136
)*2	-14.8147
maxk	-14.8162
[6][2	-14.8164
ies	-14.8165
dip	-14.8168
dari	-14.8185
27000	-14.8188
▁6);	-14.8192
▁xd	-14.8196
▁dt	-14.8207
▁1)])	-14.8213
▁iii	-14.8238
Bu	-14.8245
Lb	-14.8281
tring	-14.8289
|.|)	-14.8295
1[1]-	-14.8301
curl	-14.8309
2++	-14.831
[2][0];	-14.8314
▁10.	-14.8323
][3]++	-14.833
=20	-14.8331
arguments	-14.8338
('1')	-14.8341
1=-1	-14.8349
sss	-14.8355
50);	-14.8358
1+1)	-14.8361
odp	-14.837
000	-14.8381
51][25	-14.8385
vi	-14.8396
▁ksm	-14.8408
iz	-14.8413
[3000]	-14.8424
][3])	-14.8444
ble	-14.8444
late	-14.8446
""."")	-14.8446
=100	-14.8447
][4]	-14.8448
dataa	-14.8454
memc	-14.8458
minix	-14.847
=?	-14.8474
2)*	-14.8475
3[2])	-14.85
▁newli	-14.8502
▁2200	-14.8509
lab	-14.851
▁cl	-14.8513
[23]	-14.8518
▁lasti	-14.8523
▁2003	-14.8536
▁cnty	-14.8543
12;	-14.8548
▁(1*	-14.8554
5*5	-14.8566
Maxa	-14.8571
2[30]	-14.8578
100005	-14.8578
coin	-14.8584
5050	-14.8584
EF	-14.8594
▁-2501	-14.8616
ze	-14.863
59	-14.8636
▁gcdf	-14.8643
[0][2]))	-14.8646
▁mergeSort	-14.865
▁-99999	-14.8666
npar	-14.8674
[0]-	-14.8681
[5]+	-14.8686
nowl	-14.8686
2525	-14.8698
4=0	-14.8706
2[15];	-14.8709
▁100000007	-14.8737
▁disp	-14.8747
1[3][	-14.875
ub	-14.8755
▁tempo	-14.8762
=4*	-14.8762
tcases	-14.8777
simb	-14.8797
ile	-14.8803
▁-1);	-14.8817
15];	-14.8827
kt	-14.8833
▁1][0]))	-14.8844
pm	-14.8884
LIN	-14.8895
201010	-14.8904
1000000005	-14.8931
▁lengths	-14.8945
▁vy	-14.8946
▁-10005	-14.8983
]*2	-14.8986
▁combi	-14.9006
17];	-14.9015
5006	-14.9052
(*(	-14.9072
▁3001	-14.9076
▁201"	-14.9081
▁""3"")	-14.909
▁-999	-14.9096
11111]	-14.9101
▁1.00	-14.9109
▁clos	-14.9112
band	-14.9117
▁ano	-14.912
▁10055	-14.9122
▁7}	-14.9127
il	-14.9129
▁5002	-14.9143
▁3];	-14.9145
▁xinc	-14.915
▁',-	-14.917
usi	-14.9193
[0]));	-14.9202
Mi	-14.9214
)/60	-14.9222
1000;	-14.9224
▁MA	-14.9228
[2][26]	-14.9232
#.#.|.|)	-14.9273
maxsum	-14.9306
ds	-14.9315
▁7.0	-14.9321
▁1120	-14.933
14;	-14.9335
jum	-14.9336
ticks	-14.9336
]==0	-14.934
[-1])	-14.935
▁Or	-14.9356
)(2	-14.9357
nxt	-14.9358
▁pus	-14.9383
=7	-14.9394
▁1000000003	-14.9417
▁sat	-14.9424
ip	-14.9431
[200007]	-14.9448
201	-14.9461
▁15);	-14.9468
ew	-14.9474
▁(3-	-14.9475
▁stri	-14.9481
▁nmax	-14.9498
▁nut	-14.9509
icos	-14.9522
▁'9');	-14.9534
3--;	-14.9542
▁eraseN	-14.9544
▁arrb	-14.955
)+1)	-14.9575
2653589793238462	-14.9592
▁"":	-14.9598
maxv	-14.9611
▁ingeger	-14.962
rip	-14.9632
▁mxs	-14.9636
llow	-14.9637
][7	-14.9639
▁2009	-14.9656
[0]=0	-14.966
▁999999999)	-14.9673
ihash	-14.9673
mnb	-14.9683
si	-14.9696
%2]	-14.9705
▁intlog	-14.9712
▁-111	-14.9713
▁zy	-14.9749
▁10005)	-14.9765
""|	-14.9765
qw	-14.9804
▁3.0	-14.9844
rtion	-14.985
40	-14.9851
lon	-14.9873
005	-14.9887
user	-14.9911
{"	-14.992
nner	-14.9925
▁qt	-14.9938
▁dpn	-14.9941
▁2)];	-14.9949
0.000000001	-14.9951
[1]=	-14.9955
characters	-15.0007
▁-99	-15.0017
▁94	-15.0094
((2	-15.0095
▁ut	-15.0104
▁-999999	-15.0106
rez	-15.0133
▁520	-15.0182
)+1)*	-15.0189
▁fst	-15.0195
▁ang	-15.0212
▁ipos	-15.0218
lar	-15.0229
sumc	-15.0241
lll	-15.0247
cs	-15.0254
won	-15.0254
]>=	-15.0255
rray	-15.0264
tmpa	-15.0273
area	-15.0303
▁('	-15.0317
5358979323846	-15.0335
▁isgreater	-15.0341
▁py	-15.0356
▁joint	-15.0364
-8)	-15.0368
][2]=	-15.037
▁Not	-15.0375
▁100000000001	-15.0375
96	-15.0376
▁tobin	-15.0379
miny	-15.038
1010	-15.0397
sumr	-15.0418
(4)	-15.0421
▁-,(	-15.0423
▁cns	-15.0428
1[2][	-15.0431
▁pat	-15.0431
][2]))	-15.0431
[333	-15.0434
joo	-15.0444
%2	-15.0472
▁nope	-15.0486
▁1000020	-15.0582
[5000000];	-15.0589
cvis	-15.0595
>9	-15.0597
divide	-15.0601
1004	-15.0609
nn	-15.0612
▁5100	-15.0621
1001"	-15.0634
▁68	-15.0647
▁minsize	-15.0672
rc	-15.0672
▁ii	-15.0685
east	-15.0739
[12	-15.0762
▁aj	-15.077
000005	-15.0772
""+	-15.0776
send	-15.0782
4*	-15.0802
ba	-15.0844
99	-15.085
▁ki	-15.0854
4000005	-15.0855
cons	-15.0861
14	-15.0865
▁61)	-15.0902
3_1)	-15.0928
][2]++	-15.093
stu	-15.0944
▁50010	-15.0949
ints	-15.0955
bstart	-15.0958
][0]++;	-15.0985
▁361;	-15.1011
▁811	-15.1025
60-	-15.1026
)(0	-15.1048
[56]	-15.1048
▁11}	-15.106
-3	-15.1083
fA	-15.1108
▁org	-15.1112
countr	-15.1116
rst	-15.1148
mina	-15.115
▁""<	-15.1154
ded	-15.1165
[605];	-15.1171
730	-15.1197
▁1020	-15.1199
▁wid	-15.121
▁hm	-15.122
▁cift	-15.1228
anstemp	-15.1278
▁2)));	-15.1284
▁(2);	-15.1336
▁205)	-15.1348
▁tek	-15.1355
1000];	-15.1361
8979323846	-15.1377
▁sumo	-15.1388
▁576	-15.1393
ount	-15.1431
5]	-15.1482
[4-	-15.1483
3=0	-15.1487
▁'}';	-15.1504
▁ot	-15.1521
▁Ln	-15.1541
▁they	-15.1585
.0));	-15.159
]=5*	-15.1592
[0]])	-15.1631
="""	-15.164
▁gy	-15.1644
mxd	-15.1659
▁1600	-15.1667
25"	-15.1671
srt	-15.1686
(105	-15.1708
▁decreme	-15.1718
px	-15.1737
▁ult	-15.1743
▁addm	-15.1761
*1000	-15.1786
distl	-15.1792
#.|.|)""	-15.1799
jjj	-15.1819
#.#.|.|	-15.182
.#.	-15.1835
1[1];	-15.1836
ir	-15.184
[2-	-15.1852
▁1000000]	-15.1872
00000000;	-15.1903
epend	-15.1926
)/3	-15.1928
siz	-15.1936
=0.00000000	-15.1937
(-1	-15.1969
▁Pr	-15.1992
▁nma	-15.1999
▁appl	-15.2002
32,	-15.2028
4-	-15.2038
▁maxnn	-15.2054
▁('0'	-15.2063
1/3	-15.2081
▁lr	-15.2089
▁Icosahedron	-15.2117
▁whi	-15.2122
13);	-15.2122
2=(	-15.2133
20);	-15.2152
▁resb	-15.216
mc	-15.2161
espe	-15.2168
lsum	-15.2172
0};	-15.2176
▁stt	-15.2212
tol	-15.2215
her	-15.2251
▁bas	-15.2251
1[0]-	-15.2306
00000	-15.2317
▁rb	-15.244
3[2	-15.2447
2384626433832	-15.2456
=5*1	-15.2467
29	-15.247
▁yc	-15.248
ue	-15.2498
[2]]	-15.2538
beginning	-15.2539
▁45	-15.2558
▁qo	-15.2559
▁Mi	-15.2572
▁els	-15.2612
▁iso	-15.2616
000005];	-15.263
slast	-15.2671
2[1000]	-15.2704
▁9999999999999;	-15.2706
ice	-15.2716
eq	-15.2737
3333	-15.2743
=51	-15.2758
▁isval	-15.2765
▁-500	-15.2781
▁9];	-15.2793
-97]	-15.2808
▁kmp	-15.2817
▁nq	-15.2845
1]);	-15.2847
nce	-15.2849
uar	-15.2859
3000010	-15.286
[2010	-15.2898
▁yu	-15.2909
500005],	-15.2916
▁39	-15.2921
▁79	-15.2928
▁ln	-15.2951
mtest	-15.2972
ig	-15.2991
yp	-15.2996
(25	-15.3006
*3)	-15.3008
25*	-15.3014
2555	-15.302
/2+	-15.3032
2000010	-15.3072
▁""2"")	-15.3075
cer	-15.3094
202002	-15.3126
▁fit	-15.3126
▁311	-15.3129
Bd	-15.3133
pet	-15.3146
2=1	-15.3173
ision	-15.3201
|.|	-15.3231
▁100500;	-15.3245
65358979323846	-15.3245
▁86400;	-15.3269
die	-15.3275
)/100	-15.3318
DE	-15.3327
▁fh	-15.3331
.0)	-15.3343
▁cntm	-15.3343
stance	-15.3351
-1]=0	-15.3401
▁sumit	-15.3431
]/2	-15.3437
gcdf	-15.347
[1500]	-15.3472
▁cu	-15.3478
1000000000	-15.3493
▁try	-15.3505
_1)	-15.3543
jmn	-15.3545
+'0'	-15.3561
1200	-15.357
aj	-15.358
nas	-15.3581
lj	-15.3608
▁lenc	-15.3639
▁Di	-15.3663
▁!=0)	-15.3687
26;	-15.37
(0))	-15.3726
▁100000001	-15.375
-14	-15.3762
▁199	-15.3771
▁sch	-15.3788
99999999;	-15.3823
""1""	-15.3829
▁483	-15.3833
▁functio	-15.3839
3));	-15.3843
▁63)	-15.3844
ky	-15.3859
555	-15.3904
9999999;	-15.3908
qx	-15.3924
2[0]);	-15.3943
multiple	-15.3947
▁124	-15.3977
xd	-15.4006
nul	-15.4025
31[	-15.403
+9	-15.405
▁{'\0'}	-15.4062
22;	-15.409
▁6];	-15.4093
mins	-15.4095
[6][6]	-15.4099
[104]	-15.41
mmi	-15.4119
▁dres	-15.4137
ist	-15.4143
asum	-15.4144
▁lcnt	-15.4161
init	-15.4166
[1000010]	-15.4189
[6])	-15.4201
uc	-15.4203
3"")	-15.4219
▁265	-15.4243
argument	-15.4248
=200001	-15.4278
zzzzzzzzzzz	-15.4315
10000010	-15.4317
curs	-15.4327
ini	-15.4338
ssign	-15.4344
eate	-15.4346
[110][	-15.4349
3*	-15.4352
[5	-15.4374
'4'	-15.4378
▁1111111	-15.4386
][0]]	-15.4424
sumy	-15.4487
▁ccc	-15.4497
99,	-15.4499
▁ask	-15.4517
teger	-15.4536
wa	-15.46
▁-100000000;	-15.461
(2)	-15.4616
360-	-15.4624
ST	-15.4626
▁"".	-15.4642
cters	-15.4659
400	-15.4661
1=1	-15.4664
[102][102]	-15.4664
▁er	-15.467
cntm	-15.4691
▁""."")	-15.4691
▁2011	-15.4694
210	-15.4717
-1;	-15.4718
maxc	-15.4734
WINS	-15.4741
][4];	-15.4747
uu	-15.4772
[255]	-15.4805
▁82	-15.4813
▁fj	-15.482
])+1	-15.4827
▁tolow	-15.4833
hari	-15.4844
▁10000000)	-15.4874
Temp	-15.4876
((1	-15.4924
▁countt	-15.495
▁ai	-15.4991
[200009]	-15.5
hap	-15.5001
11;	-15.5008
)&1	-15.5027
▁mni	-15.503
ill	-15.5052
reference	-15.5083
nTime	-15.5086
mink	-15.5095
]>	-15.5105
variables	-15.5112
ef	-15.5158
retur	-15.5158
ersectionsleft	-15.5159
zz	-15.5202
700	-15.5205
1[1000]	-15.5224
kq	-15.5227
minp	-15.5233
5);	-15.5275
tes	-15.5277
0005];	-15.529
firstb	-15.5293
200010	-15.5306
[*	-15.5306
2[15]	-15.5313
egi	-15.5333
contain	-15.5333
=360	-15.5336
▁240;	-15.5345
jw	-15.5354
▁removeDuplicate	-15.5357
actions	-15.5374
vc	-15.5376
▁69	-15.5393
▁251	-15.5419
▁multi	-15.5494
▁Re	-15.5501
45	-15.551
chara	-15.5523
GCD	-15.5527
hack	-15.5551
longs	-15.5552
▁preb	-15.5565
2-1	-15.5583
9+10	-15.5589
_2)	-15.5633
=10010	-15.5638
matrix	-15.5641
▁maxt	-15.5652
3),	-15.5675
positive	-15.5686
▁forth	-15.5689
solution	-15.5717
Lucky	-15.5724
_1.	-15.5726
▁tru	-15.573
<=0	-15.5746
4];	-15.5746
more	-15.577
bottom	-15.5778
2[1000000]	-15.5814
▁increm	-15.5829
largest	-15.5839
execute	-15.5841
casos	-15.5853
standar	-15.5859
Need	-15.5893
LCM	-15.5899
contains	-15.5909
evenCount	-15.5951
[0][(	-15.5954
DFS	-15.5986
▁2.00000	-15.5989
condition	-15.5989
From	-15.5991
limak	-15.6013
slogan	-15.6014
numOf	-15.6028
+2)	-15.6029
quotient	-15.6029
[51][51]	-15.603
danik	-15.6031
decrypt	-15.6038
towels	-15.604
xr	-15.6042
smaller	-15.6042
▁fals	-15.6046
small	-15.6057
comparator	-15.6073
spect	-15.608
salt	-15.6087
nearest	-15.6093
powmod	-15.6095
ible	-15.6105
30[	-15.6113
loss	-15.6116
52];	-15.6118
▁inpu	-15.6124
horizontal	-15.6127
jumps	-15.613
=0.000000	-15.6144
▁temps	-15.6144
clockwise	-15.6145
Check	-15.6146
degree	-15.6151
nclusive	-15.6155
blyat	-15.6159
packs	-15.6161
highest	-15.6161
boxes	-15.6162
▁(100	-15.6172
1234567	-15.6172
numPairs	-15.6173
previousConte	-15.6174
1000000)	-15.6179
malloc	-15.6183
28;	-15.6191
pen	-15.6197
10000];	-15.6201
compute	-15.6203
sequence	-15.621
iskom	-15.621
shelves	-15.6211
nilai	-15.6217
cry	-15.6221
tConOven	-15.6224
consecutive	-15.6231
bucket	-15.6232
borrow	-15.6234
sleepTime	-15.6237
CityCode	-15.6239
numerator	-15.6244
Result	-15.6244
diamond	-15.6245
besar	-15.6245
▁toup	-15.625
][10];	-15.6257
huiwen	-15.6257
secretary	-15.626
masha	-15.626
ple	-15.6261
MaxN	-15.6264
numofelements	-15.6265
insect	-15.6268
▁boo	-15.627
connected	-15.627
notebooks	-15.6273
numerador	-15.6273
tiga	-15.6275
totalSec	-15.6275
multiset	-15.6277
blockb	-15.6278
failed	-15.6279
edits	-15.628
""0123456789""	-15.628
wallet	-15.6282
tambah	-15.6283
nrod	-15.6284
occurrences	-15.6284
complexity	-15.6284
reqrec	-15.6284
noOfprizes	-15.6287
qpow	-15.6288
numOfteams	-15.6288
rightMost	-15.6289
bad	-15.629
faktori	-15.629
inicio	-15.6291
maxWord	-15.6293
,0,1,1,	-15.6294
CASE	-15.6296
qoutplayers	-15.6298
duplicate	-15.6298
revStr	-15.6299
particpant	-15.63
palindrom	-15.6301
expect	-15.6301
Goals	-15.6302
phnum	-15.6303
minimal	-15.6303
minMatch	-15.6305
nst	-15.6306
niceWord	-15.6308
numhours	-15.6308
aPrices	-15.6309
maxsuff	-15.6312
bhoric	-15.6312
bvoric	-15.6312
mishkaCounter	-15.6312
fatias	-15.6312
aTypes	-15.6313
chrisCounter	-15.6313
totalChocolate	-15.6313
massiv	-15.6315
problem	-15.6317
groups	-15.6317
importance	-15.6317
inputLength	-15.6318
minCoin	-15.6319
arrSorted	-15.6319
isInn	-15.6319
modpow	-15.632
totCc	-15.632
takeoff	-15.6321
dict	-15.6321
arrOccur	-15.6321
plNumber	-15.6322
remnut	-15.6323
nEven	-15.6324
=25	-15.6326
Potega	-15.6326
falta	-15.6327
programming	-15.6329
segment	-15.633
noOfStudents	-15.6331
reasing	-15.6331
nsticks	-15.6332
contBi	-15.6332
isTwo	-15.6333
judg	-15.6334
vertikal	-15.6335
casiresp	-15.6335
fastexpo	-15.6335
recursion	-15.6336
warOpen	-15.6337
pertama	-15.6337
isOne	-15.6338
flush	-15.6339
selisih	-15.6339
Ncoins	-15.634
wasOut	-15.6341
maxSol	-15.6342
backward	-15.6342
unfortunate	-15.6344
minPockets	-15.6345
success	-15.6345
0.25)	-15.6345
cilik	-15.6346
divUp	-15.6346
kedua	-15.6346
numCup	-15.6348
peeps	-15.6348
mySum	-15.6348
maxSwaps	-15.6348
maxTemp	-15.6349
isLucky	-15.6349
mejor	-15.6349
deleta	-15.635
deflt	-15.635
numOfNet	-15.6351
checkDegenerate	-15.6352
angleofpolygon	-15.6353
feet	-15.6353
shouldContinue	-15.6353
haveBigLetter	-15.6354
stairs	-15.6354
women	-15.6354
shuwei	-15.6354
isRoot	-15.6355
except	-15.6355
triangleNumber	-15.6355
numberOfInputs	-15.6356
selection	-15.6356
isComposite	-15.6356
isSubstring	-15.6356
numberOfLucky	-15.6356
isThere	-15.6357
tra	-15.6357
banknotes	-15.6357
cycleSort	-15.6357
charArray	-15.6358
Toats	-15.6358
noOfOranges	-15.6358
spicifier	-15.6358
ambos	-15.6358
shuzi	-15.6359
freefuel	-15.636
isPerfectSquare	-15.636
smallAns	-15.636
tempRange	-15.636
isLesson	-15.636
checkTriangle	-15.636
countLuckyNum	-15.6361
FindNotFound	-15.6361
1000.00	-15.6361
Answers	-15.6361
tSinOven	-15.6361
SecondMulti	-15.6362
availabe	-15.6362
haveNum	-15.6362
numMedal	-15.6362
tempChar	-15.6362
FirstMulti	-15.6363
checkDigit	-15.6363
orderArguments	-15.6363
upperCount	-15.6363
totDist	-15.6363
isDistinct	-15.6363
kachok	-15.6363
isboundary	-15.6364
yippee	-15.6364
FillArray	-15.6364
ChuyenDoi	-15.6364
reshala	-15.6364
sumofdigit	-15.6364
predicate	-15.6364
fourcount	-15.6364
camino	-15.6364
checkbottom	-15.6365
gnomeSort	-15.6365
Operation	-15.6365
addBinary	-15.6365
buhuiwen	-15.6365
GetStone	-15.6365
getDigits	-15.6365
curAng	-15.6365
proverka	-15.6365
palinoal	-15.6365
splitTime	-15.6365
matrex	-15.6366
isDanger	-15.6366
hasSmall	-15.6366
isAbsent	-15.6366
hasDigit	-15.6366
hasLarge	-15.6366
sameletter	-15.6366
theBrickS	-15.6366
mltotal	-15.6366
statmnts	-15.6367
CalTime	-15.6367
isPrefix	-15.6367
setunion	-15.6367
cOdd	-15.6367
esPosible	-15.6367
handels	-15.6368
cleaner	-15.6368
kpyto	-15.6368
isPref	-15.6369
fatora	-15.637
conv	-15.637
locate	-15.6371
myFile	-15.6371
areSame	-15.6371
marge	-15.6371
normalize	-15.6371
TOOG	-15.6372
wynw	-15.6373
resultado	-15.6373
repeat	-15.6374
prawa	-15.6374
cherk	-15.6375
sushu	-15.6376
already	-15.6376
haSh	-15.6376
borne	-15.6376
selectionSort	-15.6376
Petya	-15.6376
uper	-15.6376
yeah	-15.6376
isCheck	-15.6377
boss	-15.6378
kString	-15.6378
Team	-15.6379
selsort	-15.6379
split	-15.638
[1050]	-15.6381
bottle	-15.6382
unionn	-15.6382
death	-15.6384
▁Rea	-15.6387
remdiv	-15.6389
setIO	-15.6391
flip	-15.6391
frap	-15.6392
kiek	-15.6393
smallans	-15.6396
""444""	-15.6397
99;	-15.6399
mndist	-15.64
Wstep	-15.6404
Prv	-15.6406
isDt	-15.6406
room	-15.6407
moze	-15.6408
kMaxN	-15.6411
xuli	-15.6411
empat	-15.6416
trash	-15.6416
Cost	-15.6419
""11111""	-15.6423
movesB	-15.6423
blocks	-15.6425
5005	-15.6427
meio	-15.6428
unio	-15.643
qplayers	-15.643
linie	-15.6434
▁betwee	-15.6436
[1000009]	-15.6438
][1]++	-15.6443
quantity	-15.6444
5000005	-15.6445
17576	-15.6445
minodd	-15.6447
vict	-15.6449
122	-15.6449
Last	-15.6453
ess	-15.6454
10005	-15.6455
je	-15.6456
deep	-15.6459
lewa	-15.646
valini	-15.6461
sevenCount	-15.6463
vetor	-15.6464
2000005	-15.6471
Day	-15.6472
factors	-15.6476
tempCount	-15.6478
flot	-15.6484
stck	-15.6494
checkright	-15.6496
under	-15.6498
toutt	-15.6503
spare	-15.6505
lexi	-15.6507
oolean	-15.6508
▁tempa	-15.651
▁mnt	-15.6512
cards	-15.6515
gtw	-15.6516
100;	-15.6519
5][5005];	-15.6519
1,-1,0,	-15.652
1[1000000]	-15.6525
quit	-15.6525
kata	-15.6527
ncasos	-15.6534
xclusive	-15.6539
prices	-15.6541
▁=1	-15.6545
▁603	-15.6547
divN	-15.655
dick	-15.656
bill	-15.6561
setbit	-15.6568
1[20]	-15.657
▁differen	-15.6571
[80	-15.6577
370	-15.6583
4)))	-15.6584
pkt	-15.6587
checkleft	-15.6588
volume	-15.6588
chores	-15.6591
Mark	-15.6595
great	-15.6596
2[2	-15.66
3.14159265358	-15.6606
frac	-15.6607
▁360))	-15.6613
▁debu	-15.6625
checktop	-15.6628
cyc	-15.6638
lusive	-15.664
ward	-15.6645
lhs	-15.6646
chec	-15.6647
disc	-15.6669
added	-15.6673
expo	-15.6678
etween	-15.6685
▁0.000001	-15.6687
viii	-15.6689
gede	-15.6689
▁characte	-15.67
cCount	-15.6711
2501];	-15.6713
rhs	-15.6728
[2001][2001];	-15.673
winA	-15.6736
])/2	-15.6747
2000000000000	-15.6747
occ	-15.6751
ariable	-15.6759
build	-15.6765
mpty	-15.6765
uisve	-15.6771
▁execut	-15.6772
TR	-15.6783
quared	-15.6785
[15][1	-15.6789
▁numOfteam	-15.679
printDiamond	-15.6793
▁writ	-15.6799
▁reduc	-15.68
minTime	-15.6805
249	-15.6809
▁respecti	-15.6811
usive	-15.6812
▁betwe	-15.6812
olidays	-15.6813
xecute	-15.6816
[30	-15.6816
▁30100	-15.6816
ultiplication	-15.6817
cntup	-15.6818
hanako	-15.6818
▁searc	-15.6819
mainder	-15.682
jmx	-15.6821
glace	-15.6821
ulate	-15.6821
▁Otherwi	-15.6822
impossib	-15.6822
just	-15.6822
tialize	-15.6822
ndPointer	-15.6822
jolte	-15.6823
opblem	-15.6823
ould	-15.6824
▁throu	-15.6826
drome	-15.6826
asili	-15.6827
icates	-15.6827
65)	-15.6828
▁respectiv	-15.6833
italize	-15.6833
[1000007	-15.6835
▁eleme	-15.6838
▁precis	-15.6838
dulo	-15.6839
1000*1000	-15.684
▁0.000000	-15.6841
aws	-15.6845
sel	-15.6848
=3.14159	-15.6849
▁les	-15.6849
▁ifstrea	-15.685
llest	-15.6851
etdigits	-15.6852
▁tiemp	-15.6857
▁decr	-15.686
▁followin	-15.6861
recurs	-15.6864
▁euq	-15.687
cluisve	-15.688
rope	-15.6884
maxdiff	-15.6885
▁stor	-15.6892
datt	-15.6898
1/	-15.6898
▁defin	-15.6908
▁shif	-15.6909
▁heig	-15.692
clusvie	-15.6922
kmp	-15.6925
00],	-15.6936
posite	-15.6946
There	-15.6956
oubles	-15.6958
▁160	-15.6963
rase	-15.6967
lute	-15.6968
Remove	-15.6968
allocat	-15.697
FB	-15.6971
hred	-15.6972
poped	-15.6976
""6""	-15.6982
heap	-15.6992
▁setprec	-15.6993
▁imx	-15.7002
god	-15.7018
1,0,0	-15.7019
ively	-15.7022
7][100	-15.7023
01)	-15.7023
sudah	-15.7023
▁charact	-15.7025
=300	-15.7026
▁otherw	-15.7029
▁Dani	-15.7041
=200000	-15.7044
050];	-15.7045
stant	-15.7049
inder	-15.7057
-3)	-15.7059
jud	-15.706
▁-7	-15.7067
2>	-15.7073
coB	-15.7074
(""14	-15.7076
cul	-15.7078
00000007;	-15.7082
empt	-15.7085
suit	-15.7091
mRead	-15.7095
vpoints	-15.7099
1*1	-15.7099
1022	-15.7102
97]	-15.7103
rots	-15.7104
wak	-15.7121
lime	-15.7126
eturn	-15.7131
▁vecto	-15.7132
floating	-15.7141
indexT	-15.7141
jia	-15.7146
vocals	-15.7151
moud	-15.7169
ugh	-15.7173
[1000009];	-15.7173
Players	-15.7173
▁firs	-15.7179
24	-15.7194
▁retu	-15.7194
fs	-15.7225
IN	-15.7227
boy	-15.7228
100100	-15.7237
MAXM	-15.7238
Cnt	-15.7265
▁1""	-15.7266
ocka	-15.727
▁20000000	-15.7273
1)*(	-15.7277
▁9]	-15.7288
▁1][3	-15.7292
cute	-15.7303
GN	-15.7305
545	-15.7306
jav	-15.731
▁std	-15.7312
▁52;	-15.7322
pod	-15.7325
(-1.	-15.733
▁argu	-15.7341
▁201""	-15.7342
ferent	-15.7345
suf	-15.737
▁recu	-15.7373
finala	-15.7389
swp	-15.74
979323846264338	-15.74
CT	-15.7409
angel	-15.7416
8*	-15.7418
00*	-15.7419
GI	-15.742
kiu	-15.7422
((2.	-15.7436
gla	-15.7443
▁6]	-15.7446
sL	-15.7449
▁bitsh	-15.7473
pending	-15.748
dsk	-15.749
▁1234567	-15.751
fer	-15.7522
numW	-15.753
sive	-15.7537
▁crea	-15.7543
▁elem	-15.7547
iso	-15.7549
bestb	-15.756
nowR	-15.7562
1000000000000	-15.7568
▁((!	-15.7584
MI	-15.7593
2)*(	-15.763
+1)-	-15.7631
0--;	-15.7634
04];	-15.7634
▁setmin	-15.7635
pc	-15.7636
000+10	-15.7644
▁7]	-15.7649
000000000;	-15.7658
tml	-15.7666
minb	-15.7666
letterx	-15.7671
[52][	-15.7676
ipar	-15.7678
▁2333	-15.768
9999999999;	-15.7736
his	-15.7738
=-10	-15.7743
(26)	-15.7763
rings	-15.7778
20;	-15.7788
▁20001	-15.7793
200200	-15.7819
▁terminat	-15.7829
maxC	-15.7844
▁>0	-15.7855
mass	-15.7905
12);	-15.7911
mpoints	-15.7917
dots	-15.7931
fj	-15.7942
substrings	-15.7962
][600]	-15.7974
[17	-15.7979
▁seco	-15.798
mnd	-15.8004
[101][10	-15.8017
maxim	-15.802
ek	-15.8042
▁{1}	-15.8065
5/6	-15.8067
nb	-15.8068
body	-15.809
('-'	-15.8095
when	-15.8101
Rb	-15.8131
disx	-15.8159
cant	-15.8163
]/	-15.8167
epar	-15.8179
0004];	-15.823
MD	-15.8237
▁myS	-15.8241
[2][1	-15.8262
ang	-15.8269
creq	-15.8311
teste	-15.8326
80];	-15.8334
▁ches	-15.8349
▁succe	-15.8379
sTrue	-15.8397
▁""...	-15.8397
ranki	-15.8413
minim	-15.8424
vect	-15.8451
iv	-15.8466
mpu	-15.8487
▁alphabet	-15.8498
ave	-15.8508
20];	-15.8524
nting	-15.8543
(10000000	-15.8549
jol	-15.8568
tests	-15.8599
suc	-15.8605
cale	-15.862
notes	-15.8742
ka	-15.8743
▁mxn	-15.8744
'#	-15.8746
=1001	-15.8787
mind	-15.8791
tran	-15.8834
mpow	-15.8868
rcont	-15.8874
60]	-15.8875
▁Fin	-15.8876
▁""1'	-15.8877
isP	-15.889
teams	-15.8892
*6	-15.8894
▁intp	-15.8948
▁fal	-15.8985
powm	-15.9001
▁mr	-15.9007
[8]+	-15.9018
1[105]	-15.9042
=50	-15.9085
winm	-15.9085
gth	-15.9086
getans	-15.9092
▁othe	-15.9099
-1]=	-15.9111
tempn	-15.9115
[1000001	-15.9137
'<')	-15.9157
000,	-15.9158
term	-15.9179
nvotes	-15.9197
300];	-15.9209
▁1006	-15.9254
hmn	-15.9258
mys	-15.9259
][32]	-15.9287
sums	-15.931
*7	-15.932
02	-15.9323
(100000	-15.9335
▁255	-15.9341
00010];	-15.9341
▁(1+	-15.9408
']/	-15.9411
1[10	-15.95
4]++;	-15.9506
umberOfElements	-15.9595
lines	-15.9611
▁20002	-15.9631
isval	-15.9634
)5	-15.9642
Eu	-15.9652
bc	-15.9665
mmm	-15.9677
▁210000	-15.9687
1/1"	-15.9689
7];	-15.9698
100000	-15.9726
▁consum	-15.9734
[30000]	-15.9765
▁!""	-15.9767
4])	-15.9786
[][3]	-15.9811
▁1]]++	-15.984
slen	-15.9867
/3"	-15.9913
ration	-15.9931
[(1	-15.9939
ori	-15.9999
▁1/1	-16.004
7))	-16.0043
6][2]	-16.0058
▁nN	-16.0069
28)	-16.0122
▁lv	-16.0134
[5]])	-16.0149
totd	-16.015
▁zzzzzzzzzzz	-16.0158
ug	-16.0173
2[100]	-16.0236
sumz	-16.0264
esto	-16.0274
▁ld	-16.0289
hm	-16.03
▁mt	-16.0323
ju	-16.0324
02];	-16.0363
fx	-16.0388
▁setmax	-16.0388
0005,	-16.0395
▁');	-16.0396
6+	-16.0423
00+10	-16.0431
▁strin	-16.0432
][0]++	-16.0437
gp	-16.0447
endpos	-16.0455
▁8))	-16.0459
tion	-16.047
[202	-16.0487
'.'	-16.0489
bol	-16.0542
▁td	-16.0567
ccura	-16.0567
0+10	-16.0582
minA	-16.0614
210"	-16.0664
)))))	-16.0761
printed	-16.0772
NT	-16.078
36	-16.0802
=200	-16.0831
4010	-16.0831
10][100	-16.0844
▁TO	-16.0853
wid	-16.0855
105;	-16.0856
dos	-16.0922
[1]++	-16.0929
#.|.|""	-16.0947
